memory_initialization_radix = 16;
memory_initialization_vector = 
8004679C0002605D,
00015C7980053507,
8003298E8005E14D,
000241560001A590,
8001BFF80008BA54,
80011CD100050436,
80057C160001D13A,
0000C34E80016ABB,
0001DB158002EA3D,
8002D7E0800170A9,
00044FF2000526B8,
0004BFF90000856A,
80044C8480057A39,
8006F23580010616,
0001924D0001ED56,
80023A370004ECDF;