memory_initialization_radix = 16;
memory_initialization_vector = 
000025E200005765000029360001336680009C060000C7598000FA54800099C6,
000072870000FA9980004D8D00003DB90000888C0000065300003C27000248D7,
00008CD980016BAF00007C918000DD4380001E1A800050E88000858880000707,
800245730000131A8001532200011F2580000E5D80002C3B80011E0E00010BD6,
0000B64D0000360F00006A0B00011CD18000008B80001D9180008A3480007545,
0000B08A00011160800071F2800120828001D7C80001A5230000155F80005AC6,
0001E71F80003F3E800017D48000197480007C6A8001033F0000FEC880000443,
800055DC00003A88800082C9000025E10000BF8300012CD88000572B000079EE,
0000B07B00001C868001A5740001A26C000146F700002FCF80023E230000495F,
8000156700006FE2000021398000162800005420800141B08000CD3180011222,
00014A120000C0BA8000CE670001093B00004B940000736B00002E2F00007A06,
800035F18000F85A00023B21000065488000019380008953000093EC800078F6,
80005AB48000FA06000079EB00010A1E0000E3810000A3520000840A80001F8C,
80006D8780004DAA0001529B00001EA28001A90B00009CB08000375F8000083F,
8000681B0000D95F80001DB0800077FD80014BA98000EEE100012379000162A1,
00008F290000B3E7000264378001037C80015791000047C60000B8CA8000AC74,
80002CCA80000FAE0002026E8001A7A780000F0A80000E318000834D0001A5A0,
8000045D80019D6B0000FA7A8000A3C700006EFA000091B800003EE480008C56,
80007D748002945200002EFD800074B300003B6A8002846C800006E58002191A,
80014F9E8001B6FA000132768000FDD9000037BA8001D0B30000B84E0002478D,
8000FD7700004768000200978000338600012A538000B58B0001B5F880002741,
80000D08000044818000805F000102490001193C80004AFB0000860F000035A7,
00003EE90000CC5400006B01000140228001701F8000935A00021BCF0001920E,
0001DE90000015D7800101100000BC72800057C68000BEAD8000FD78000269C1,
00007155000036EC000155B9000041510001CE6900005F1E8001100A800112EE,
0000EA8700010DC0800032DF00002944800027C580016A088001EE4F8000CC19,
800016F700011CA3000236B200019A2A00006651800098408001BE0500013EE4,
8000446000010B760000258A000003278000A5DE80001B9A80001AE180019646,
000066E78000DA0C00009ED88000BDF7000026E280012324800229230000787E,
8001A59680012CD98000073800010DB780008CBD8000230A80005F5800010E58,
000053588001724080004F6D0001AE6B000030CF8000561A8000839000008883,
0000BBD40000D91D0002A48B0000867D8000BF880000FEFD8000562E800191B5,
8002BCCF800074FD00005C1300004D128000F23F0000613D0000FFC900015958,
800007F8800256B0000301878000551F80003470800045F900009AC100007CBE,
0000B7CF80003F4E0000272700002A76800046E000009B5A0001C34C000095FE,
80003CF68000C7B1800086ED8000F2CE80002B6000009F34000134388002255E,
0000EBD700005B7A80014CB50001659D8000C84C800074F5000058DB8000277D,
00008F6B800161260000D7CB8000B5D700009FB000007E8A0000C3C000000A47,
0000C11800007D4C00000F5F8000B2718000C74380015A2F8001608300003665,
0000A73C0000234E8000A5E38000C38F8000768900023E2A0000103500002387,
0002047A000192368000F8060000B82880007F740000AAE4800148D48001012E,
00003A4D000081998000CB3D8001F11E00011D53000140E500007AE880003106,
0001C44D000164C68001E1378000943A80007C138000F3B500004E240001A63A,
0002424C8000C5760001B9B500002EA9800049F1800089EA0000C4D7000008BA,
000062FC80012778000121C1000060058000D1080000777C8001DD7B000083B6,
0001A99E8000211F0000D0A60000DC3880002BA18000A4478001924880012E6A,
80003C7480005A3C800154C2000073798000A12980004DB28000FAA80000988C,
8001513400001592000043DF8000385000000A4C00006C6E80001CDF00008175,
800041718000259F8000A96A0000D1258000F19C0001E68E80005B0D80018EE4,
00011EAD00003FF6000029878001974D0000D3C48001E85000007DB780018EAF,
00003FDE00004B44800189F78000F5C00000572F00004C918001073480010E67,
8001A3578000BAB1800015C78000EAED000109F200003C060000A332800013D4,
00007C9380000B3B0000886A0000718F00003E9C00029852000003F7000048A1,
0000837A0001E32B800091260000E763000121BC80005C0E00003AEA0001476F,
00010D7880010A24000008358000A7810001DF030000D8760000F3E58000C67E,
80003CC48000E3A1000093DB000114C500010CF9800081E20000F7FC800169AB,
8000484480005AC680025C538001936E0000EF4C00011F9D00016C22800071B4,
80019D340002659E800157D80000404C80016F62000010DA0000F29C0000C0C6,
0001983A80002FEC800036AF00000820000001BA00011B1D800071C48000C1B2,
0001155D0000FDD90000D8808000DE76800063608001FA35000124F580014B68,
8000BC520000954380003DE10002ADEF00006E818000BBA40000BA58800121CE,
800111ED800162B280016EAC00016073000073B6000174818000CA8980010714,
80029EED00005DBE00023D7C80018F080000D21B00009C038000EFFE8001B42A,
80003710800072A50000EE67800016C58001429D0001C40E0000A93C80002564,
8000887A00006A3A800080B480005DB380021BF08000C71D80002A1A8000512A,
800112558001230180005902000027DA00018A3280002D468000637D80007E6E,
000066618000DE20800021DB000012748000CC78000154DD80013D2C0001ABD9,
0000B7F300005DCD8000975500015F2C00001DA70000CA0A00003F598000F6A1,
8001004F8000899380000B82000101430000C0DB00014CEA800084BD80008030,
80009990000008D3800117ED000133FF8000D5530000CCDF8001631B80019338,
8000D3058001525600006B9D800106AD80000FF0000227CA8000FAD800009CC5,
000078CA8000BB0E0000B55D8000AE7F8000364F0000A8790001ED6F80015FC1,
0000279E8000B6010000A4A200021A8880009016000076D28000C2EA0001635F,
80010C970000A4E6000065108000AA93000038AC00005BA780014336800007A4,
0000883980006C7C000055F4000062150001867A8000859B00017A2400001A16,
00000ABA00007490800009B6000092A680001B3780005CD700000A7200005C0A,
0001895D0000AF4D8000384A000184630001116C0002730D8000FD520000FAD5,
80008F980000958B80020A0F00011B138000A64300010A8F80008FDC000080B9,
0000B3A9000147E10000159A00003135800018880001A28000000CE60000A710,
000038FD00012DA980005D740000E02180006FA600007A608000317480013B29,
000148200000DCBC00029BEF800014318000A78080010E0F0000475C8000444B,
0001AC4E00004C218000564200018A51800219C40000CEB70000C4020000C86D,
0000442E000167FF0000018180005F9500008D14000061BB0000862C00008E35,
8000B0AB0000325D80000F3980008C71000026170002268A00007A6E8001364B,
800076F8000023398000CFBC00015797000157D080006F6D0001A419800031CD,
8000E8B8800014E7000001B800000D530000F27C0001A3028000A0E70001DA17,
00004D9C800035A78000733A000118C38000EDD600004E018001370980007892,
00001CB4000036F80000AA5200000ECA8000383080004C3180010C9A0000245C,
80007947800079AC8000B44F00002E5F800120CA80004CA98001D5CE8000AE7C,
00008F9A00001F9D0000399D800098C08000FE4F0000708980019E6E0000FC40,
000172E48001024580006C370001EBD480000E9A00016A898000889180017954,
000147D4800046728000788700011A8A0000034B80007045800269EB80007FF2,
8001C1488001E9D28000A0370001D8A600009389800139528001BB35800054A9,
00004B9D00021C060001E2550000E23580004FD40000474B0001825A00024300,
0000382000022A3980001A820002632A000121F5800027F180007A5580006AAB,
800141580000CFF00001221200015DD38002A7138000F8248001BD2F00005564,
800079390000F40800005BB60001F3688001395880000F460000784A800003D1,
0000887800002BF58000DDD8000340C080010CBE800043848000049E00011833,
8002729200018518000165EC000308D88002CA3E800009830000A88C00018A2D,
8000EB4300013F3E8000B99D00031C0080028E9200005AB100011C5180004F44,
800022C80000183600001002000245E5800221268000831F00008F1C0000CD1F,
800021A00000D9120000D15100019D1480019472000198D80000CEF68000074D,
0001898500015A7780017A88000196AB80006F830000428B00013E1B8000D6F9,
80006376000169C300003C8600006FC38000B08280004B3A0000538B0000626E,
00007FE6000112868000564F00013DF68000DAA10000421A00019BBC8000F12F,
0001503A000137E200021CC100013A3A8000B4C500007DAE8000B4A1000037C1,
00008D7280012FD48000025A0000CF14800088CC0000BE47000186AC00008DB1,
0001D06780002211000094A0000150F1800048DD800057DA8000AAEC8000905F,
800120570000527B80007762000021A580016DEA00013E970000C4998000980C,
80010343800012488001449A800002B280009F330001DA5A800027AB00003332,
0000944C8000953A0000AB40800052C88000409C800117B700000DFD00010118,
0000F9DE8000DE6E8000782D800185BD000028F400017BB58000E36680002FD5,
00001D020000E03200000A2D8000B209000120608000396F0000089100015B16,
00002B608000D778000057ED000066F280006CC6800059220000851800008761,
8001236A0000C8D800002B8C8000BE66000000AF8000BE31000090EB80003F33,
800301E980008A07800029F480006E218000A1360001CBC20001160B800109F3,
8000BEEC000119C8000015AB0000365F80005BD2800112A8800113580001D7F1,
8000ACD180003C35000035A580008217000010E40000BBB0800022188000789D,
8001CC468001CE7080011CC0800227758000C19E00030B908000E7598000376F,
000074FC00018BDD8000C6C200004C1100001C51800143A900026BCF80005385,
8000245C000081AE80006010000129FA00003F0100004FC680008FCA00012444,
80026E6E8000D1C1000123CC0000BB8900006E3E800128998000855F80006690,
80002C8F0000174D80000E5600012D5680003E7880015893000036920002C8F7,
8000705F800050DB0000B8948000373E8001D127800026AA00005854800064C3,
000009BA00004D9780012A9F0000BFDD00001E898000F69E000092BE8000A6F4,
80012DFB0000E04B8000F1600000831080004C3380001F7E80004B310001EA54,
8000336F80002BDD80000A7000000DF28000D8818000A7C80000A9150000F552,
00013C260000EEB400015DA300007BB28000F1FD80019D9D000048F580005809,
80012BC380011D4E0000F40B0000D6150000253500015E3D8000037E8001DCE4,
80002A1D00008B45800071D880008F7D00007275800075E30000055C8000D073,
00007A978000148C00012F160000D3B78001D13B0000757B00007E2C00007B8E,
0000BA860000335800008501000026E400013F0800010AEA000035C780006585,
00002064800076D40001B6088000433D800095D10001C4018000A18E00017101,
0001CDED000007638000FF230000432600001FC280014A950000275E00003FC3,
0000405C00003E9400000F8580001AF38001B9F700029AC8000194FA00003D37,
000193BB0000A072800093EA80001402000006B8000199A780003A5100024B66,
0000851B00011713000031B5800231E98001F9970000D834800038EB00006CEB,
0000BBC8800066DE80010A4B8002A86D0000CDBF800081AF80014AB880001C41,
00006D65000080C28000F7A280003B138000A8BC0000197C80004B8480012937,
000001858000D5BF0000364B000196540000F427800053830000F24B00004DA2,
800062280000D3EC8000A30300016DF7000068B78000365700013E9180000B10,
8002FEF40000B1C80000328A800053250000C78200011B0480018C4C00000F71,
8001812000002AD900005B7E8000667A8000A9128000859F000085008001527E,
8000FEDA0001141B80005FA3800003A68000FE1B000011D900007981800199C8,
000017B50000766700000A7500007EA280008D7500003AB4000120330000EBC2,
0001D4E9000009C980000CEB000015F8000048AF00008CD500002CB50001E14F,
0001DF350000113400002A4000007ECA8000F1908000960E000118650000A971,
80000A8600002C23800212970000343F800001BF8000245D000031C7800109CE,
00007DC080006EC200005866000076B8800102958000B88B000092D90001DBDD,
0000100F00001F1500000A6C80000673800226CA00007E8380008E0C0001756A,
8000690F8000E0E30001816C0000132B800247748000A27F8000636880007D81,
80004130000011C88000D3A88000C7548001B4C98000D51C0000C00300002CA6,
800085E380013C190000D548800086CA8001BAFE8000B8F680005B0E00012332,
0000826E8000B4AC800173660000C817800097BD8000A6B0800019C0000011FE,
00007AED8000EB3300019EEC8000448E800037ED0000548A800063330001DC82,
800020AC000016DB800062E68000DB07000045A58000C323000086A900007597,
000025D70000D95700008B250000577F8000B541800093FB00007E750002A72D,
00000D8380019C3D80005C0A8000653C80014F228001B320800062730000138E,
00001FB9000199918000A6640000509B00006C510000327E000016AD8000A705,
800119BB80002C7200001F6080003E428002192100008AA20000A400000083D0,
800080680000B2C50000EE4080009FC7000108BD8000705B00003CF58000D1B0,
00008BC7800006198001DA4480008CF50000153D00014F3C800023B880000B7A,
00005934800017DB000073B780003FF30000B7E800000EBB0000453E8000AEBB,
0000BF360000C19C0001DB0E800117D90001A39E00009F6A800092A88000E2BA,
000070EA8000B4DF00008FD38001807E8000B79A000054A88000457900000143,
0001BBEA8000B9EF00014F238000E156800122F3800004BD8000A8BC80005083,
0001628300007F3700000E1C800008A10000372D8000FDD2800033B580027747,
8000B4518000643300004BC380013D37000294C8000215B600003D1700000C09,
800117798002EEFD00006E5F000169390000A5AE00000FDA00007C4080013654,
00001CF0800118E9800095A5800052A000011E8680002DA480006F66800132F7,
0000DE0B8000826D000002D28000689E00004E2F80001310800049FD80013625,
8001048780005DF1000067C3000276B30000F285000020940001D1D980003393,
800172A68000DA59000143F6800014C780014AF28000E4FC000077E100012B98,
0000DB64800133958002053E0000C7700001103F8000502B000099338000114E,
80009BA680012D7C8001845180004A298000A1158000AC430000AC0900016550,
8000BCBD0002D9218001FA5A8000CAE0800205BE000072018001734300008051,
00004EAD800035E0000033D5000041D380002BB4800158690001151F8000305E,
8000E6BE0002047E8000DCFB000048108002087F800033E48000FF6A00006EFD,
000094BF000077E78000A52E0000BD8280027625800120AA00005C7B000012C6,
0000E92D80009C7D800054CF00007D3480011E048000578D0000A3230000C20D,
00009DCD8000E918000228E900002746800017108000B69180000FA500018591,
800083888000EB00800021590000204A800129A480015DEE0000ACA48000619C,
80008010800086198000670800003C5B000012858000DDB700003D5F00018F5B,
00000C2C8000114700000AB3000078D88000AACF800004BF8000276000021C09,
80012ED88001143D800006B8000066CA80004395800029AC000065850000D5D6,
00000C59800069238000690D80005085000041B28001AA980000168800008E4A,
0000087C8000DBAE80005F170000A4F08001042E000060810000298500018387,
0000B4A200001D6980000E928000EE99000091808000B615800045990000D7EE,
8000B9E800011085000041F9000025998001BB2380002A79800022FD0000C56C,
00014C8C000056D60001D6C80000A71400008A9B80013F930000A8090001E603,
8000028E00016BE70000BEA6800103F9800044260000422D0000C7DD00013CFF,
00007B04800029578001705D80000EBD0001E5AB800062A30000716700010051,
0001FD5900016023800079558001BFA7800225AE8001164C000122CE00012BE4,
000074F7000141FA00002C2E8001257F00003CC88002469D8000DD938001007C,
0000763A0001299F00016C2A80003AB60000052280000D19000093E100006B16,
8000374D0001A67400005E7B0001074E000001138000BB9B00007E1C0001102B,
8000BBAB8000986D80017F690000116F00000B87000158970001E03D00012886,
80002E2E0001D37700016F3D000089CC0000AFCD800159730000443900013B1C,
00006DAD0000477D80009009000028938001DBD800008E6480003C5D00004054,
8000E1FC8001925280003BEF000089488000D51A0001CC710000CFB8800066A1,
00000F1100005F4B80001CC20000C4DE00009FF380021EBC80006B51000077EB,
0000B4D60000AE6A0000BBDC0001478880013389800039930000F6958000342C,
0001F5848001A3F88000F8470001465C8001536880000E778000F5A500008E8C,
00013A820000EB6500021D6F0001023D0000D1BC000022040001479D8001B904,
0000317E000275AF0000757D000062A70000500F8000C798800136EC80001686,
800014518000B95E0000191480004585800019AD00009E21000078850000E7F8,
80004FD180015D488000C250000041018000E15E0001079B000013F900003C38,
000024210001BF860000BDEB80007A2A80023E1D80000D2F80009A96000114FA,
0000EB188000266E000253A900004A07800038A28000A56700004E3C0001C395,
80004DB18000D3D00000C7E58000B51B000090BF8000223A8000C2AD80002BCE,
000000A68000DE0700004FCA00002DCD000064068000336100013A5480009002,
80016FAF800039DC80024C8E0000289F80012DCB800015028000897B80002766,
0000F5368000C363000005AF8001179E80001F388000D625000087860001F935,
800070F800006F3D800156CC00001B9980000F4D80001DB380002B9400016ADE,
0001863C8000B32E00009B43800131548001973F80005472000089210000DD65,
8000E29B000037B80000E3430000AE6C0000387C80009406000038AD00006510,
0000CD968001D70680014B5B800022750000DD51800135CA0000186F8000A2C1,
80006C1480001A4380015DF980009271800157700000D19800003CF700019EDE,
00018035000077AE0000E1978000960A000074A58000DBF58001475E80004FB2,
80013D7D0001A29A00000E9380017F3080004504800141780000AE2680007213,
000098E0000130AF000042BC8002E5EC0001744B8002C1C50001451E0000915F,
0001405100011DEF8001765D80010FDC800239548001E9A68000709D000119DB,
00010016000186FC0000648C0000DBBA0000BCFD000106AA80000D8900014BCC,
8000902400004CFC800115D88000694A8000734180014A21800049C18000B4A0,
800034188000FA64000079E0800114B18000C0E1800000BE8001A01080002100,
0000E1908001063A0000476F00017DAB0000016E800120440000984A000101D0,
0000C41E8001666D800033CD8001F29E800147E4800092258002BAE38001C3D2,
8000A7DD0000891180016B4680001D7A00008DA500006CDD800090848002293B,
8000088F8000047F800061A40001BFC80000AEE30001B0228000809A000153E3,
00010B6E000032B3000077E6000078620000860E80007210800029EC800064AB,
0000211C00001C5500004F7E8001DAE200006D0D0000B25900000EFA0000CE68,
800069810000BACF0001092C00005C6F8001209D8000F4FD8000AE3600006729,
800000B18001D40E8001B9268001075E80004DFE80000AF580000DE30000E8C5,
00004DA90000684E00025CE4000025BC800184E080010D278000B04400016B1E,
000078898000661500003E168000546080026C268000C16500002D180000869E,
00001C5D8000466D0000B45900008A278000B5AE800050810000B6990002A37A,
0001874A800052520000C9060000B57D8002D95A00008CA20000748E00007044,
000049BE8000827C8002DE4F000080710000DC2280004195000065A500026CEA,
00006460800118920001E868800083C8800078CB8000D0CE800000190003D8F8,
8000548D80009C0E00006F3400002F370000A2DA8000C26B00006557800146F5,
00000E778000874200010C1800005266800127598000D4198000957400015EF7,
000001958000B8FF8000153700000590000052BD80002C890000ED3F00007C91,
000000EA800017410001B8980000B7D900002566800098590000293F80002296,
8000AEA980002D73000181890000432F00001E408000334180001FDA000082A5,
0000B84E00008765800006D7800041EC00008B01000022D30000BC330000D4FA,
0000D9A48000BBE9000165C300008BFF8000120D800017EB80006B0A000030E3,
8000B8A180002DAA000174F00000BE2A0001501A800256BE80005EDA8001183A,
0000FAB58000757B8000AF2F8002390780000408800287708000317A0000D88A,
000111880001A99B0000986680049D8F800000FA8002D2F500000EAA8000B41A,
000179C400015FF50000FB2E80016FFC00025A5B80010D4A0000908600013B85,
0000EF6A00007ABF8000593E0000247D8000B8920000085D800058A700006553,
8000668B00009CBF00010DB000001D2480000FF10001A7F780002D768000BA53,
00009DEC80010532000123DE8000AE81800062D6000113B78000B8830000DC1F,
0001CEEC800112CA800074E080023FA90000BB3000001F6C0000A6680000324D,
000038C080006FEF800175CD80000B708000767B00003BB8000127EC8000CB91,
00001512000212FE8001573800008CF08001E1E68001B50D00005A3980016C01,
8000FEDE800181FE800130AF00011CD1800198EF8000157580007E860000FD0D,
000159D280013A608000FB4B0000ABB38000DA480000625780009CD180003186,
0001EB66800171B50000C4660001891C000028A70000E518000051948000810C,
0000B380800156130000B6880000AF178000AF6E0000AE650000F2120000267D,
00004F8D80010CBD00002EFB00005D7C80025355000036860000015900007222,
00015D308000C9AC0000F2E5000080AC80018BE1800072EA0000D3520000B5F1,
00001A1480017C348001AB4680002E208001669D000011EA80005FF48000F942,
80003C1B8001127C0000D39B80011183800233288000151E000076980001FEF9,
00017C4B800128090000240200008EFE80014F6C8000516180006BB980008931,
8000DFD4800140AE800012C500012420000043EB000051B0000031DE8000D256,
00004F0F8001D89600001FCC0001E12F000022DD00008E6F80007FF90000EE6F,
00016FE8800032EF800144A38000BB1A800025F000003620000054648001448A,
000047BC8000F0280000ABEB00002C38000062540000847400003C9B0000FB39,
00000C0C8000E38E0000CA820000489E00015994800022DD80002C5500004C06,
00002137800119B50002663E8000118A80004A1100001D358000808180003D8E,
0000166480005F49000049B78000315680010A6E80004092000012940000E025,
0000976E000040310000D82000001707800106A58000E2E880005F8480005709,
000057710000165200019BA48000C0708000499A80008B2E800026F98000C1F1,
000026FE000015638000EDAE0000A11C00001C16800093140001908000013C1E,
0000D2F40000DD2A8000EAB48001028A0000A43880018BB5800086D88000F3B6,
0000FDA800003A310001CE898002A87300007FCE80019E3F0000B0AC00014254,
0000E7BB800005620000B52A800230D000004BC3800191A9000020B980010454,
00007627800166558001652A000135850000C5D680011F0900009DA080021AB5,
8000975E80004E67000102D5000277698000D66E00001B0B000037AD8000D975,
80007BC1000054BF80006E968000E97F8000721F00004074800121A700009A17,
80000CE9800022B90002A17A8000B677000098D5000078850001D3F600006EA4,
800017618000411F8000001900010A0200002BAA8000FDA88001795C0000D841,
8001D63100017F558000AF6300018F4F8000D4B70000665D00015EC2800073D7,
0002009D8000EC5F00015C02000102C90000194E00009C84000087030000829A,
0000A3DF8000C5018000FE358000A4C3800133A5800061780000682000014260,
0000A80E80017C6C0000EF9E80012F288000409680013C2F800124F58001792F,
80007C208002143D0001B11F0000A0D08000F02B8000BEF200005D410000E077,
80001CD480004DF48000C0448000258380008084800031D0800025868001088F,
800090D780011959000028E88001BB7180016CE800004BA480003EF50000227E,
000005BA8000E9B500011402000047178001EDB6000078D88000E32E8000FB28,
0000A35280013AC8000036BA800100F48001B03F80002F4400006BA8800210C8,
00015223000073298000EFF18002007E800058C10000AB6480005B850001DB05,
00023883800048530000AB40000082968000860A80003692000043A18001D8C4,
0000E24080000C5A0000F8F5000146760000820D8000120980009B92000055BF,
00006E600000242680007C6C000078A60002B1E70000F1B0800029DE0000069C,
80008B5E000108A10002490B00010D17000105AD8000BD998000DEF780006E4E,
0000AAE6000125F70000C2B90000D8150000BDBD80006B17000003A680008C44,
800032E58000017500018068000004FD80007BAA00000C87000016388000CA4F,
0000B32C80014F9D8000401E00005B910000D15C8000884B80005A8A8000842F,
800107668000296A800119D10000436F80006785800138510000D4568001EF82,
0000CE220000807000006465000070788000A2358001399000009D52000062D0,
0000BA6080014355800055C28000587E800116EA8000058B80006B9E8000D607,
000080AB800043E280017A8F0000DF510002ECAA8004730480004958800005DE,
0000245D00021A2B80007EB78002307D0000C62C8002FDB80001335D000048D5,
00008CBF0000508A0000142180012F730001FF4F8001E9220000AB6F00005EBE,
0000AA3F8000873B0000EDBC0000D4F400010E478001659C8002B61D00004CBA,
80015D3D00012AE1000042CC80002B7F80026E0D80001A1900008244800024B1,
0001453B8000D92D800035C18000B01C8000920A8002034E00003EFF0000102E,
8000EE41800099E400020B2E0001A2AA00007CA3000104FF80001B7C80001A92,
8000CBE08000840B80016027800083D100010B2D0000990F000076408000409F,
0000961780001AD100004196800011E48000E917800033C08001558B80007AE3,
00011B2080012A5D8000CF7F00000BDC8001E79F0000C28E00005DFF80003730,
80005E8B80005FB88000515E8000B7C78000887F8000718900001F110000D4DC,
00009B36800277860000C4CE000032A70002806E0000B71E800048498000D6A0,
000095AB8000F95F0001BE968000FB078001C10C00006EAD8000F5598000FAD8,
80004C5380008028800030638001225B80002B730000658C800075C880010A86,
00006AD48001A61B0000010F800015708000699080004923800083EC0000867E,
0000B2F20000584E00008CDC8002039400006DBA00001627800009760000885B,
8000C90500000DC600004A028000AAB8000025BB000070098000700480014176,
000115B0800101E400004BC4800223A68000BD5F000023700000FC7500002A73,
80001C8F0000DB0B00001992800141540000D17D00000310000096830000518B,
000022D680013CF70000E91C0000BCD6800028E1000015E200003A868002DB76,
0000B83400008F5C000210BF0000027C00004AB18000EB4F00003A910000E382,
8000968C8001B9A6000004C1800093A6000059B800011578800029888000441B,
800045E00000860A00010F9C8000BB07000038CE000091EE000041EF80008618,
00007A458001152900006D970000B90A00002133800005940000888980004B4F,
0000806F0000DC69800131FB800049F800001C830000B54180013F6000011AF9,
00007758800055E50001CF2900006D3480000151800026968000F48380004A67,
000002F48000751280013E5F0000E5A88001DD1C0000C2938000EDE880000E77,
8000AED58001863000024BD4800034D6800010B5800032D9800059B28000B3D0,
8000330B80016690800008900000EE2580011F6580012B7680017A4D00011035,
8001A6878000FB9080002A2F8001B9140002BDC88002C79C00012BA08001738B,
0000DB020002F6F580034C4980013DF2000093C18000DFE80000201B0000D783,
800083F200022D99800062C78000F14E800067DD00002D1A0000C9BF000175EA,
80021FD20000E42A000132EB8000792D8001E3C00000FC0F0000C7AC800046AE,
80001738000059B680002C890000EEAD800085C00000FB3200011BAA8001AA2C,
000054940001A8F00001AF798001576A8001A38100002D7280003B03800173C6,
800273F28000F1A700009B2F0000B7588000939D000064C180017E8C0000C9F2,
8000E189000132BE0000D9A280012900800138830000BE0A0000718C8001071B,
00002745800175BA000095108000D7230000132A800086CA80025C838001D1B5,
000014888000A5FD80004D7F800134AB80023E7280012FD380001DF9800178B5,
8000A36000001B228000841A8002969B00017190000146C88000143080001C62,
000122B480004F6D80000DA8800185CB8000D24A8000402180000A4B8000303B,
0000B78F000054740000EDCC80012946800194D50001CB45000063CF8001FE77,
8000DEEF000155E38000119580012A0080010F0500006BF38000367D80020793,
000015780000F5A58000DD588000C832800023EE0000AF34000034C700004F0F,
8001AD4E00019390800016BB00005D36000007E78000DF5480004F8C8000DCFA,
8000296C000219E800014EE3800142498000D7790000F25400006CE680016E14,
8002263E0000C63D80008EE9800090440000EBB780000A768000246580000F0F,
8001A2E48000D97E0000D50B8000134600007CBE00003850000071DB800242D5,
800084608000053100005A790000F2D000019C1400000551000063F7000168E7,
00008099000064380000B06F800044598000A08200006336000001F080009A7C,
80007C278000C01D0000EE2A00007B4C80005BBE00006A068000FB578000E451,
00001CC68000203A00004C33800078FE8000A3EB00006D1D0000C72B00012916,
8001720F8000F77D00009D360000697880007AE080001C4180004023800076B5,
8000FC568001E99C0000F53380001BF50000A82D00002B9D00003B948001AF70,
800041A680010FDC0000E7F38000A8AF8000F3A30000AFAF8001D2D00000076F,
80019FE180010D4500004F560000E20880024BE10001BD4D8002704800002D43,
000076AD8002581A0000E03B0000DC810001DA54000003178001609900009702,
8001B2D100004E3180015E3E8000B0CA80007629000036F780009FED0000CF10,
8000253E0000758B0002841F0000B8C5000165CA8000E0F200000CD58000CE7F,
0000D65F8001A30F0000DAA68000BC480001279800001DFC00008E0D80018547,
800051B9000077BF80011CC9800033F30002650D0002626B00000E5E80003AD6,
0001A3B380016EBA00013EF200008EEF800183D6000011C6800045F98000C403,
800213550000EB2A00006EBA000142E6000070B98000F0238000BF7580017918,
800024768000C19B8001EE7F00007479800213780000762E800011620001F743,
800059A28000A92D80008E0000009DAF80009D2C8000B59A000079940000E9A4,
800092740001F1B40000E7F7800157D00000FFAB0000ECE3800046AA00004AB7,
00012CC10000E601800080BA8001ACA580012B3A00028930000032588000731D,
80010A4D0001AF8700001B468000029F0001ECE48000E6CA800008F800007848,
000046CD0001113200001282800153668001C8CC0000893580003FF5000013E9,
8000D2EA0000D37D8000F7030000046D0000D86B800090EE80015077000197D3,
0000B8C0800067CF00010B3A80002AA8800015CC800023DE0000624600019905,
80008EB9000179C480003310800024CA8000971D8000467300003D4C800009AA,
0000901D0000F19B800099368000598F8000F358000027AB0000764D00007449,
80015D3A00013AFA0000820B8000A2090000885480004D26000080C10001B09E,
8000E11E80003A720000335D8000C5260000A88D8000324E000002E58000AED4,
800004AC8000B14C0000568080000F600000F9EA0000B6DA00005D00800001DD,
800191EA80002E728001977700000B2E800089440000564B800064450001943E,
8000F84B800114B40000E03F80003F7B00004A450000B9C00000693D80004BAC,
8000C2C48000830600005F5E0000525D0000F98F80006ABC00006EAA80009FC9,
80001BAE800034C5800034C38000785280014C86000013F680002CB880006AFF,
8000FAF080006F170000F2A080009A1180018B1300011F880000DA558000B33B,
8000E0B8000017C20000F8978000F5DA800285D70000F8AA8000299900003344,
8001564500000E8B80015FEA0000F6C9000022B400000135800048A20001AC20,
8001F0A70000C8450002258E8001E63D80014306000212C7000088DB80010D35,
80004F320000F7750000919900012CBB8000954700014F428001CC3580017422,
80013A4D0000EE5D800064000000F5578001A1D10000E60600004E7A80007A67,
800099928002DFBA00005E100001256A0000556400017636800003DC80017AD6,
80002DF700003419000047FA000142A180018E4180017DB880002E9D00003539,
00013AFE00012971800077FB800100EC000016F3800170D880014B96800071ED,
8001914F0000549B00017CD000015DFB0001389A8001016C80024F79000143C2,
0000BA8D0000A1290000EA0B000289388000981F00007DB18000531700013EBF,
0000765D8000CC6A8000535E80014A328001223500007D43800089F00000A53D,
000145B68000B075800076618000ED790002BB510000D189000093D480028471,
800041D000002BF300012A5E8001DDEC00004D380000120F8002AD75800040C4,
000084720000A6AA8000DD4E8000D8710000609B0000CAED000025B8800107A7,
00005750000150190000E53780003F118001D9A10002B2758000553E0002371B,
000027930001BE9C80018923800073DF80003EC600010D210000411380009DE7,
80000238000111E30001E15E8000A6F8000069950000E6BC00008F6B800038DA,
800056530001B5B0000198550000095800005ABF0000C96200003CD2800085A1,
0000AE2B00021AF200006EDE80005A21000079FF000058A680001CAD0000D297,
8001D76500000BC100013CC58000397280001C768000767D8001FAF08000A2D4,
8002258900013E2B0000E75000002839000026D6800099ED0000F7B300009D0C,
80020BA98000ECCB0000026E80007EFD8001133F00001E3C8000702580004904,
0000032680016A5A0000F35900002E9E80001DE2000021AE000072E680005198,
8000734D0000B7F300013B7F80008A110000DE6C000051870000D4318001237C,
80003FC480001D770000EE748000716B80004F2C800020B08000AB8C00017A37,
80022D7F00005C1F0000629A8000907880004C8B0000922B80006FD980010BB2,
00008C1600003A1D0000592E800006978002086B80006E9D0000898880001D94,
00004B650000C5DF000175290000B10D000042350000F89C80018C0400009280,
800099790000369600020EB100004A0A800064B80000B7978000281A8001B975,
0000131980010B4480009D948000C87080013BC100006D888000067980001C61,
8000FC0D000153F380017EE70000DDD78001849700010C3A0000044D0000E703,
8001BD30000095E680002E360000688F8000A6068000065400003637000061AD,
0000A9570001D3DF0000D688800069790002043100023373800295AD0000F308,
80016A3C8000E5F98000F5EE000100BD000178E60001400E800119D40001D526,
8000AC0B00003FE680005E0880009EC08000CB1600001D660001186F80012CC3,
80004FEA80004B878000AAFB8000A96B00012F5A0000E4F60000AAD08001000F,
800154B10000544180002E950000BE5C0000029E00014FE30000001F00009F58,
00008C3A00005DC40000D4668000C85D8001196400009D71000062BC8000C987,
8000A81C000164B78002A528000104CE80009C7500006D170001B83480000A50,
0000ED248000613D80016CB28000A8A88000922680004AAF80011E0380004C54,
0000400E000076DA8000109B800039AC8001CE50800081858001E61C0000D6DB,
80013BDE000029810000BFA2000159A00000E01980006D3580014D2F80012B8F,
0001023F0001E97D0003F7198000A4290000796B800015F580009EB60001ABEF,
800062D60001061A00010B8D0000B05A00011586000122C780011D6A80003A6A,
8000978E000234A68000705C800001EE800039990000AEC980015A3B00014658,
800043A40001EBCB00017B23800088FB0000A63A000087E6800061FA800039CD,
80004E5400008AE200011050800069EC8001075B0000C19700005617000115F0,
800156078000E0D8000323BB00009A0A8000B45C80003C2E000075F40000D147,
8000BFB380005B45800044738000D886800057D400004C100000951B00018056,
80003BB20000035100007F20800007E10000C32080003F6E800009F100002A9D,
80012584800072498000E1D000005C25800095B4000107938000911E00008CB8,
0000C01700003C3900001C038000465C80000E8A00004DCB000057600000550B,
8001B5508000301A800189130000D5DB0001BBC780002B4A0000A9E900011FCF,
80002E6900011828000079EB8000105E800118E1000115DD8000FB4D8000C2CF,
8000A4F680004B5180008F7100007CF380001D2A000076E40000252D000055BF,
0000456A80009F358000D83D00003BE380014BB100013B3700001B6C80004EE1,
800020AC000011198000E9810000953000005599800072A80000BB17000145DB,
8000F3D500016EEC800022F70000BC0D8002519F000217CB0000036C80005189,
8000F4BD0000BE29800030800000993E80000AB200021DFE0000B0AF80000838,
80005C9280009C9C0000F2080000E4D500008E1F0001E60900015D5E80008308,
8001CCDD80004DC4800045F500014518800081BD0000367B00007115000188CF,
8000D19C800013BB0000F9BA80005EE880012BD0800123E10000F4A60000C50B,
80017C0580003FCC00001DC50000FDA78001BF17800026F98000FE258000122C,
0001C2938000FFF9000086328000775F800014E38000D9F300003B2B800068A4,
0000F90080011D3580001EAB0000E1D680005C9A000051C5800153550000B144,
80009B21800141C58001099B000093A5000086A000000FDD000144188001A43C,
0000714A000256668000D9A180005A568000B37200018D4D0000748A80008FB6,
80009A990000FCAE0000DD6980009E67000076DE8000C36800011C9B0001D27D,
8000A4810001BD3F8000C2010000BB730000BB5E8000CBA7000083EA00002C4C,
8000F3C40002481D00008C1A800056A30000B68C8001440F80011A61800104DA,
8000A2A10002D5948001AA2280005BA88000862900012F8180010CEC00016CD9,
00004DD9800030C88000CE2D00002E218001BF520002CC138002B5CD8000258A,
80005ADF800041D580003C968000B704800102D48000C94380018F89800041E8,
80003DC28000D64D000065240000BBDE0000B86F0000C78A80000D1900016562,
800073118000B9D2000050BF000027D58000EB9380009B2C0000FFA300002E45,
8003D65E0000D28C0000317F00005ACC00008A980000F99F00007FF5000054E7,
8000B43400003CFE0001B9FF80007156000001A4800035230001545D80011A23,
0000E87C8000771280009D1800004E9F00003E7800002C3A000088E100008F34,
800075DB800074FD0000114A800087900000342F0000E94A8000128E0000E3F4,
00004B03000070D400013A6380001B9C800139B10000932A0000772C8000B07D,
0000D76D8000D9C80000BF5880006A558000A4B800014E59800159AF00009D00,
00002445800072D100007A98800043B9800012608000463B00003F30000006F3,
00001C9C0000CDE98000678400001D5180001CA70000233B00005BEC00001CA4,
80016CF6000063FC0000E84B8000673C80002A8180010C700000634A000093E7,
000109CB0001E7DE80003FC000006578800119A40000F9D38000B15380008CB4,
0000D64B00019A97800061290000AA388000BE278000701B00005EBC0000AFB8,
8000BC120000A82800001E4B80009BEF800050F98001B0F1800051E58001578E,
0000134D0001190400013ED90001ECD8800017E68000F663000099830000988C,
8000534B80005F5880008E4F000009FE00019D0380004D15800162A40001127F,
800040750000750880011C1C00012D7B0001B2A780015D660000E6320000CA5B,
000200FB8001938080006E7E00005E4F8000AE390000EDE68001321A000124B0,
80007387000151010001592C80013E488001498200001D92800060B700008F88,
8000DAA180003E2D8000933C00008B410000C213000138098000949C00004D68,
80000F0A8000CC300000580300004E3F0000E44E80004CE5000046880000E732,
00007C580000F2C48002EDE6000144F10000443D8000DAAD000113D28000502B,
00020E59800060DE800396AD00028A6300009C048001352000006732800106B2,
800143070000792F8000CB6F8000B3F580000E1A8000CD8E000159568001074E,
800144580001052D000255470000D45E00008EDA800149418001FF8E0000923F,
80010C3C00012FFC00000C770000603500018DE2800083CA80010DD080023F39,
8001EF4F00009D34800034F500000FC180014D858000984F8000E7B38000C6D7,
80006EA60000202B8000097E800001668001310880004AD480035E170002C7A0,
8002DBE48000790B0000A941000056A4800080398001323D8004D3760001E000,
8000FD47000074DD0001E701800080C000013B070000E1818003DAEE80017FC2,
800166BA8000BC410000848C00001C028001CA590001A4C08002742A00004014,
0000500D0000490080003CDF000003CB000065AD80007E7D8000C7EE0000B01F,
000091098000458A000127EE80008D4C80001AED00004106800012E2800012F6,
80004EE4800160280000B6E00000610F80000D1F0000EAAC80008EEE00006740,
00004E3F0000065B8000BED7800093E600016A1E000158028001C37980009C8B,
80007B67000103A1800008D580000BF080003288800099498000909E00009EA7,
8000195B00002F370000DC1180002B6080003DB88000F66A80004F6E8000EE07,
0000881A000164B100009BD28000434E80006FAF0000237880001EF800003B04,
00004B9E00015C5F00009CE800004B0A80007BEA8000392B800067DE00008610,
8001BD820001B7CA0001195500005834000088F68000A7D50000C84980012899,
00005F3A0000E6FD8000679D8000909780017054800159AA8000BAE480002690,
80003B1B0000CBFE8001D03D0001A2FD000043B28001A1E200003863000049AB,
0000736F0001090E8000AFEC8000C9678000F21F8000B555800177020000178A,
8001739680016A3C0000706C00002D2A0000D9D4800013C700015E680000EC60,
00021223000183D08001767C0002F7EC8000AD1280001ED08001C18A00008933,
800132E780002B24000054C5800099B7000144CA0000227C0001B666800056C4,
80002C38000011790000D428000131F28000BAB780012BE0000256E280006D36,
8001255C800000B60000430680005B8500005AB980016B4E0000EAEA00018C2A,
000096088001AA7F8001AD1D800208E880010A1D00009AC6800116A58000B788,
0000303C0001086A00013B448000B6B20001D336000073530000AA1580011A24,
0000C97C000161D500014E0B8000C47A80020F528001A66B8000915680027135,
8000E6C30001008F00003095000029EB00019ECB80007C4D00002A3A0000E747,
8000AE360001858B0000243200003D5300007BBB8001924880017FFE80008B06,
8000F3BE000129E500015AA18002D5E200005E158001B8D700006425000148DA,
800005E40000B9E70000FC8300006E11800001F40000041B8000C8CC00006EC7,
80008F1A80003B54000136800000891700005B3080001FE380019E9E8000780D,
8000EBFC0000443880009E81800083DC0000B73E000211348002B314000027DC,
80012BD580001D3600021A08000013CE0000079700003CEE80042E9A8001F8C6,
80000D89000053A280007A3F0000393D000116878000806D8005542E80002F76,
800054B6800068CC8000718200001F5000001C5F00010CFA8004D931000036FB,
00004F93000149F780000F26000020DD0000DB9B000111D98002DFBB8000F413,
0000C5FE00004CD980005AE68000C77680009848800001258000872E80002BD7,
000072F700003FC30000310D00001D9A8000BC82000058CB00004B030000ED10,
00007ADE000037110001094A0000AB0980019FAF0000A6A900000D7100000730,
8000E37D0000A9CF80008B7D000008A00000C2E080005454800022FF80007FC6,
00002A880000382F8001B3FE00014E700000693980004BD700005DE20000553E,
80004F300000B12D800026DF0000BD210000BEBB800215DC0000F59B00009758,
00007F248000A46680019F398001020A8001B99E800112248000306C80001E1D,
800096B200016A4C80002B9100009E9A0001016880009D620000F19B00012083,
8001869A800057D900019EE30001014780010F0380018A810001076080006245,
00006BED0001977980009352000014C200003BA180026E0980009FB78000FA6A,
8001E3F080019F7280007788000081288000675C800254430000B6888001F6B2,
000100FC000042958001A41200012C990000153F80007FDF8000052D800166B0,
000008C200002C0C800082EA80004D408000901580004BB3000082B500006258,
0000C8DF8000657F0000A9EE8000E36180009FF3800111A68000358280010290,
8000A05E8000836E0000710400013A500000DB200000D4498000052880002F87,
80010D0900020AB3800196118000321E800124AB800266600000514A80007F1C,
80001AF80000D99480001CCB0001BE488000B8D100012E290000FCBA8000071F,
8000A24E0000A614000045490000CAED80000D3E0000E674000083E180002CA1,
8000182400009F7D80003594800069FE80003DA800008FCD00011B3100015453,
8001CF3E0000AA7B0000640E00001A188000CB9080022971000111C3800095D7,
800179850000F998000096D80000506B800154B8000021C18000E2580001514F,
800066FD8001AFEA000007F900004B070000065880008F9F0000A4F4800124B0,
8001DF030000164E000192558000797080012B490000514900008FB700024EDF,
0001F17D8000AD2600017310000141BF00007DC28000FF650000D18200023478,
80010ABF8000F83300011C290000297C000015098000B92100009B040000A1A3,
8001803F0000023900003C9B00008E5E00006C04000053F500000657000046C2,
000106230000D3AD00017A4D0000595100015F9580001C4880011CDA00010213,
0000D52B8000AAD0800072D500002D8700014580800054DE8000C7BC8000C3E5,
0000F892000088A70001C08C00004C3200003CBF00001EE480008E1F000097BE,
0000195400006F8C00009112800037A280005C3C00001BE3000016710000DAB1,
80001EAE80005B4C8000B0F600008FF100003DF48000A3840000B6D680009C37,
80000ADB00010D650000B49C0001658F800046A6800089BC0000133F8000BDB8,
800079BC8000319080001F4C800041A380001650000015D880001B3E8000A00B,
8000836E00010B1F0000F656000089C380002DAA00010CA88000BC4B00005FDC,
800155C70000A5D780008C070001767600010E7600012096800034A100014CA8,
00003708000095D20001D11F00016D9D800145A180008C8180004FBF0000D554,
8002AFA600007BD98000F910000022650000415F80012E0D800003FC00018B89,
00012BC6000097168000284B00000360800071B480015E8E0000F48200005115,
8001ACF480005E5200006ACF0000022F800071C90000703E80017B3000013F9C,
00007BC18001BEFE0000B66B000120C30001F05B000021668000948500006F81,
0000F60C000042FC800134F5000036BB0001985000002C3600009E4500008B99,
000185BA00002B3A0000CFA48001039680006E370001BE900000D55600001A4F,
0000D6EF00005B5B0000561400004F7000016E450000C1AA80035CAE8000E577,
8000257A8000B0DE00017ABA800011BD8001492500007BD500014A68800063E9,
000051F480004F0700013CD10000125080012BCF80001AD80001C5C900024134,
00005FF18001053E8001599C00003DDA8000BF2780003D37000169E38000972F,
0000567800013F6E8001051B00019CB600006108800192070000D2850002BF94,
0000D4C98000AD700000070000004C180000469380012AF68000D0DC0000FA9D,
00010BDB00002F8300011C95800040E300024CFC800379F00000F93F800012F9,
0001082D0000B88C80002D7C0001E10A000000048001C9E3800117E900006AD7,
800040B08001558600003D3400000D560000381980024944000169D20000F8A3,
8000D78C0000CD320000AD6400001EA0000024728000C1CF0000091B80014B16,
80005E0200011CFC00002E2E0000C9A780007B3E00007DF10001238E00016C60,
000036D4800089B780001BD300003CF20000395F800006010000B2AB80007E98,
00010ED00000D137000067AC0000343280002DD90001414E000071BD800116F3,
0000BF400000124680003C0300004FB08000C048800088AA8000886000001E5B,
8000A73400016F3B8000024A0000A5BA000100ED0000C401800025A20000BA58,
00004E0880001E3A000046D18000D15580005ED800007DAD8000080800000104,
00003FD400001F0800014B218000513B000037678000403C800002AF0001ED97,
00003C4B8000738A80000D708001006680006D480000601600003775000029A0,
8001C8A400000C93800181600000A424800106C38000E5330000BC9B0000D9D6,
0000C3D9800135BE00004F10800055C38000AA66800015CC000063B68002A11B,
8000944480009833800163D28000D43C00006467800129860000CCB000003B2D,
8000D37780009CB6800213F78000143980015C1C8000F7DD8000BF2800005D22,
000123228001B73A0001BCBC8000AB2B800111AB80032A160000EF46800009E1,
80014CB50001521E00012B2C0000FCF6000004A980009D800000DF8B00018EB4,
80006ECC800196B6000138500000DC5880000E7800005A6980022C7680005903,
80005DC080015B4E000078FE0000AFFC800009AA800051D30000E10380018208,
000148CC0001A451800024DE800067608000A4490000817980009D5580003096,
00008CDF800034FA8000F12E80002A63000100718001651A8001523B8001BFF6,
80009875800093AF0000CC1A0001D3F90000A2EA0000125E0000AC7300010DAD,
00003ECE8000AD7380002D448000D2758001B6B60000CB8C8000ABED80002298,
0000588B00012FB880007B398000881C80012A0E0000C0250000BC3E00004568,
80003FA80000D97A00012EE20000A3548000BF3D800041570000F75C80000FEC,
8000838A00022C0180007F3B8001027C8000908000006EFF0000519780001FF0,
800073C20000983F0000B6998000F8C580006FA9800157D300017BE000002B96,
800196230000CA0880019A0500006F2380008E3180018D320000461600017CF8,
800084F980000CBF000046FB80003139800093550000F8B10000495F800055BB,
800014FD00010AF68000A3F48000A0328001049F8000413F000070260001A4B9,
000087000000D1B5000065BA00001CBD000036BC00009590800012B400016A88,
0000225B8000AC138000AE02800034670000209E000001CD80002118000184CB,
0000611200005B9A000055580000204A80016E4D8000492E80000AEC0000AA19,
0000C11D000068C5000063EC0000ACDF8000104B00007C5200005BAA00012F8E,
800026C9000087E90001403F800049FC800021EE00007EDC00007EAF00016EC5,
000136E180009C930001671D0000E261800083A780004CFD800003C480001A74,
0000B3B70001473100002C960000D6A28001795400004BB480001919000004C6,
0000A76F00006E528000F11080003C7B8000BCD100015C14000019EA0000AA03,
0000BE0B00012BDA800121CC000010228000139A80001BA080002CA9000075EB,
0000D4DB80002EC500005A89000067B380013643800027AF000034E780013E3E,
8000D5298000DC040000A1B6000064F6000015AF000033E90000974800006867,
80003230000028268001AA728000A19F000029FC0000C4ED0000037E80002922,
8001835E8000D0678000EE040000A5AF000029B68000338300015C8500030516,
8000BCD90000E2A18001069E80002D3800010C7D80009A768001FB3200002F2F,
00004E78800190938000386A80017C510001179E000110FF000194FE00016D41,
0000AAED000139528000A0028000A7A2000122F080014EC70001A89300010341,
00005030000019BF8000130E80021EF48001A96B8001516E000099ED00012056,
00018E890000525E8000D50680026BB18000571D80008A98800128558000BEBD,
800006310000FA7D000013B200009FF6800030768000D82F80014C4080004E34,
00004304000151650001527F8000E9C280002F3A8001C24480018DCC0000689F,
00011C6E00001FF70001614C800019CE8000C6E00000C838800058340000908C,
80030105800020F50000CA680000E4DC000002210000ADCA00007AE9800033F4,
0000644500005697000060AA80012EC480012B47000066820001589680010E3A,
0000E95B00019ADF000155BE000030EF80005D4A800053F08000C2348000351F,
0000A1CF000079828000DCF90000E9A38000E514800121C000001574000130F6,
8001CA0D80006E6900003B0F0000F7AF800008F400017F2300002E978000CCE6,
0000D28880015B9280022377000052450002114680009C44800057108000E995,
00006CEF80002B3480012AC30000CF3B8000DC590000C9278000509600003D79,
000121A30000063B0000BF96800009FA00002BDB80011AC900005B5D8000AF6F,
8000816F80002BD48000C7E480003B0D8000C2E30000E74000003AFF80012431,
8000C3FE0000D34B00011F868000154E8000E6758000A2FA000083B400012E1C,
8000C42C0000EF9080009E880000080680009B580000088E8000422E80004125,
000183F800008DC90000F63C00004E790000093B8000D6850000783E8000D924,
8000074B0000337A800008EA0000009400006E730000CDD18000B1A080016794,
00003F82800060960000827F00003836000174AE8000BBCB0000883000011A6C,
800066260000685E800042708000245080009C4B8000518C80006A03000057B4,
000002D98000C23D0000FA908000436100005A8C0000DBF40000556D00002AAD,
8000116B000057718000849C800170458000B2500001240C80007CDB0000B1D0,
8000775C00010CEF000027F0000070C60000B4738000A2700000B2E980001289,
0000C76680001665000061188000745180007291800105CF0000B633000189B9,
0000E0A88001538B000102AD80016EB380013C408000E0EA000033770000C036,
8000EA1C80004C22800015A0800097AD8000736F8000F5320000972500036078,
0000A52000005E3300007AE700005D5C00000E880000086580011CC300012B45,
0000CB87000040480000AE04000180A80001EF2980009FBC8000CE7D80007BE0,
0001967C80004F2800002A16800061D40000CDCF000067068000A59180003F27,
000074EC8000CA3E0000ECBC80007AF90001957C0000DD0F0001772B0000787C,
0000BC4900007E540000BE3C00003B61000087200000577F8000898D80021792,
00004C1500005C91800050A98000B7948000475E0000F7AD8000F97B00021A77,
00004F5900003F028000189500016E6D800075DC0001011C00006353800290FB,
000012B700002F3300001AED0000288B8000921C0000DC5080001E8A0000641C,
80009D3E000089500000E11700000D600000B1CD0000FAB000001E9400025287,
800124FA80002BBB0001BDFF0000BCF6000131E48000AED7000019B500011919,
00004E2700014A27800190FB8000D86F000075E40000A9130001B3978001E165,
000134C1800169EA8000C5D70000C916000166E080016A498000250500007A63,
80004DF5000098D7000187470000AC00800194A580006BE280002F42800273E1,
8000445E80004DCC0001358E8000467D000054920000276D0000A1E480005E6D,
8000E8710000C7E100007B45000103D00000436480013614800121DC0002547E,
800044620000D2A100021ECC800036548000437980002E0400016E0A0000A5BD,
80002BF780003A948001BC450000161E00001B7C800079AB000020298000752F,
800001718000B8990001C87C0000A0D3000080C70000A9368000093480006968,
8000E28B8000958480003D38800055BA800117AE8000430400000576800007B8,
0000A72000016DDB8001085F800053568000218C800093B6000058D60000BEB4,
00000E810000368E00014A5600003DF0800068A700005B5B8000230E000028A7,
000061B00000207280010756800021610000D0040000154D8000804F00000F6D,
00007E2B8000679B0000DC92000035DC8000D07B8000FC2F00004F5700005CC0,
80001C100000A87300021E6E0000EE4080007FC500004A938000BF9B00004F22,
8000BF3F8000803F800042BD800106578000CEB7800176C70000CA6C0000F6BE,
8000B05C8000557E0000D67800003438000149640001D68780008B57000216AE,
8000B707000071AA8001739280019BA48001786880004534000009FB00011DE7,
00016D108000372B00006FFE800026A40000F13A8000E5178000B41A80008F25,
0000C3BF800135F50000FFE8800031ED80022D838001283E8000832000021575,
00015A610000ADA08000BB7680009955000011D20001E2E88000A5D580014624,
00003F9800008DA2000005C080014A91000238620000652200003D70000008F5,
80003A520001006880008D438000995C8000DA8480003C5200000EEC0001E53C,
8000654800009C8280023092000154F580008A1A8000BFAC8000776600004A94,
000126E38000AD940001CE27800128468000BCEA8000116400021B6B800058D1,
8000B6130001964C00016AB88000D57A80009C1D000116D68001041C800016CD,
800019808000EA31000046E30000711480011E30800029518000BEEF80004E17,
80015AB480002B76000071550000B14680009A9D80016F83000154E40000819B,
80006CB5800166AA0000C3B40000217B8002394780010B800000C45080000DA4,
800012250000D1D800010843000130150001706F800002C2000226EC8000416C,
8002042C000049908000BCAB0000B2848001AD710001630F00008C9E00015FE8,
80007807800072080000C6F9000132040000A0028000A31100017AA10000A967,
0000D28A80002A9F80003D0A800045638000827C0000F1A300005DA0800186CD,
80005F6F800002820001A7148000AEF80000100F00002ADE80005529800150E7,
8000443F8000247280007DD80000A41680003C99000114C00001119E800241D1,
800113970000DCE50001CDCD80000DEF8000849A8000C3EC800004BB00017897,
80000A5A000053FB0000CB928000119F800084398000C9FF800009F500002A73,
000092D5000038ED000094020000409F8000C776800030598000223E00002084,
80006ED3800058AD800064F3000115938000B0CB800108CE00009D8B0000A7F6,
800005E600008AB180015C83800077B000012B41000014C98000AEF480018F55,
8000BEE30001056200000B4C0000E671000039B1800177B00000A3F10000AB3A,
0001638180002E8F0000A49C800036E60000743980007D950000578D000050D5,
0000B05E000095318000857980011C810001CB5200004CE180014CFB0000C527,
8000C3EC8001367F8001636C8000EF7F8002173A0000769280016A7A00020206,
800045720000D3228000F17C8002070C0000AF2B8001B1CC800004F880012B58,
0000406B80008CA40000B1400000180F0000202C0000B1AB8001207D8000FC8C,
0000F79D00004E39800022B58002616E8000B415000031B0000030A78000A4FF,
800015E98001B22300001425800121010001B3C28001D956800065E0800080ED,
000024580000B8868001244F00018CD780015DC080010D3F80012F6600004FF7,
80020F6D8000539D0000B671000153480000AA1D000242868000C2658000C837,
8000AD5F00020C4C000047338000E3F200007DA100001A57000178650000CD47,
8000835C800039BF0001541E0000EE5380005441800102870000520F8000BA50,
8000EF578001C9CF8000340F0000676B000083B68000DB1D0000855200018973,
00019AE380002A76000093448000F87A000104DE000001608001097680005A6C,
8000C19B0000C35C0001E31C800000FB000024EF0000645200005E1E8000276A,
8000238C000007A40000FDBE00014D3C0000618100011BAC800031E080007DE7,
00013A148000F88880000D0D00013714000063308000E8148000D9750000999C,
00003F320001CE98000009888000CB7880009CC18000B5D580002BA8800134E1,
000142500000DC82800179FD8000416F0000F5FD0001528F00003DDA00012A99,
80012AE68000EAD90001B51F000066AF0000A09800012E5D00016834000036F1,
80007DEA800116E880012BAB0000895E00018C8E0000EF080000D16380007D0C,
000075DF80019052800032D5000303E1000103990000C2B8000231F100019B28,
000022858000428F80009D14800027EE80023608000016ED800032C00001049B,
000026BC80004E4D000044A5000073F0800034D4000032800000DCC600018145,
000016738000557B000109420000E375800117FF0000DD14000110F1800003F3,
800038338000945600010A80000018A580005AC48000044B0000201A80023DAA,
000013578000512B0000C1DE800009088001E1680001351B00004DB7000084FC,
00004C278000C6E780010BB000008133800008AF000065CC8000626F0000D7B2,
800066E080002FD5000025B58000C64580005972000023590000A4080000CCC7,
000045028000EDA2800094FA80002EA7000051F480002D9780008DF500012C31,
8001C93F8000E4DA80009DAC0000332180015B69000059A700013D9000004695,
80000A3C00010F590000C87380003A218000C1020000D1DD8000EB068000CF8B,
0000524F00006D6480003A068000FAFB000074B400006759800126320000B769,
8000077880002DFA800083250001606B00005D488000CF2A00007A2380007674,
800019760001824580013E588000B4A7800071680000ABFD0000068A8001E586,
00013F38800039BE8000384A0000D09000012CF580017B9680001E49000042FF,
800090A30000C56700000314000076EF80017C2E80007A65800128500000EDEA,
8001CD6780008D5C00009A910000A90180012BA100010C540000198D80002DE7,
0000E7E580001DE2000046770001261D000132A600003A810000ACDE00004F34,
0000789E000139E60000288680020A0E8001BC3F0001850F8000637400008BCC,
8000CE2C000023C100006EEB8002657C8000FF490000CFBC0000494B0000B82A,
00008A0F000037940001D851000156FC0000042700001096800131A20000A256,
0000C60680018753800047D08000B7670000BF128000812A8002B8E08001DE2C,
000165518000DE7300012E0C0000CB438000A10B000096F9800018C28000364C,
8000631E00002C990001B2E10000199100003A8F00008FAA800126138000AB4A,
000049D780007B580000957780001B150000EE960001A8A18000E64D80004B2A,
000083900000B8A180006E7E0000DF4680014D338000099A8000F62100012ECC,
8000710980029B370000F51C8000827A8000A6AD00019B2B80011A888001761C,
00020A598000815F800067640001574900004CE80000D63E0000A0C800015B66,
80002C868002854D80004C7A8001A6B280004890000029778000500D00003F96,
800040AD80003F0080000D590000B42A0000001480002A2A000030958000DBE5,
000000998000ADAF0000D9990000C1310000AC460001113880002E0680004D8B,
0000221A80026A7580003AFB800124248000173C0000883080002AD4000096F9,
8000C41080015CBC8000359300009C4A800194EA0001708700008065000061C5,
800036A48001D36300009F4400007B9C00018F14000068B58000A904800006FF,
000099ED80012D0F00013B1D000097C18001837E800038550000487B0000D5F4,
000040318000D69300003D58000131A400002FEB0002399E8000F179000009B1,
8000B3768000468900011BEE0000629280002B790000C42C0001833E80009C62,
000061C58001252A000199C780007DB08000092C8001D137800142E68000A816,
0000F70080001D670000A6E20000BD8000003F460000EFF0800052C28001C978,
0001343500008938000043D9800089F78001D78A000048DE000189EB8001194E,
000041C48000B9E00001FBC280008B8B0000075200019ED1000133758000C3AD,
80005F908000BEB58000F3C300008F0A000051CB8000613E8001508500004497,
8000DB630000B0C38000FA9C0001A61200016FD38002329F800032108000FF1D,
0000CD2D0000B0318000C2610000093B8000596A00001F8F8001D4FE80010275,
0001521100012E310000B5D000004DE0800019C580004B1E800071A28000F37D,
80012C7A800027988001254A000161130000C1D00000425A80009B2A800143AA,
80001C9C80006FAD8001D81C80012E168001A61A8000A35880005DC0800070F8,
00007200800021398001D2088000340F000176510000DA8180015A4B0000E30C,
00007BC0800014240000785D000178A08001AB3600010BC68000C6A50000ABF5,
80003D9E8000B2DA00027AAD8000AE75000056D9800085FD8000A7CF8000169B,
000107490001F22D00018D478000B370000130A48000A68780016CBE80005A63,
00002EC0800180268002592B00011C84800109E480004B8F0000E17400005B10,
00000C2E000121188000AA2980003C8A00003187000056F28000EB9F80007506,
0000E0008000682E0000577580002B3500008102800091330001A3BB0000CC54,
0000B9F0800210F1800060D6800117870000DB488000156980008D768001257B,
8000A852000063270002B3DC0000B4300001C3B800014A6D8000D5FA8000C3A0,
80018491800178D88000D540000240458000660500014980800062C98000854A,
0000AD328000CC54000019CD80019FE2000106D38000322C8000ED398000BDB7,
0000E72D8000EF2D800244EE8000394E00001880000019FF8000514100005405,
8000C95080015A8F000002348000F28F8001A35C0000862A80008BD50001875A,
800077488000FBA0000013C380009B9400002112000058D6800059538000A1A6,
0000BEA20001847F80013CC9800043CB80015733000047DC0000C64A800015AC,
000002C7800089A10000AA1B000079E88000839A0000D3178000FF560000F151,
000115660000DDFD000088FA00017DFA00003E6B800174A60000E81100014E66,
0000580C0000D50D0000273300021A5400001CF38000BCD10000443A000025D6,
0001979C8000291B00004A6A000075928001D27C800099330001D4C48000141D,
0001DE2B8000A40C8001A6AD000126E78000AD998000B86C80002ED180017E3D,
0000CE5A000059BC80003A4F800070F70000639D8000AC0C8000220400003F9B,
80008A3B000060F000008B490000EE6E00003A118001F02700007DC500005074,
8001C9E70000D5F40000C1CB00015571800111ED8001517F8001567580007006,
8000F7F400002EC7800188DE80015B23000152EC8000F3548000483F0000148D,
0000D9DB80001AE3000085698000502580012AD600003FDD80000B29000077AC,
000048460000CB9300003A0B00012AE2800138FF800036AB000002CA80012AF3,
80002EB50001D41C00014017000069888000BDD800009C7D80023FFC8000E1FF,
0001D109800169FE0000D8BD0000420A8000F10C0000488D800190970000A5C6;