1000000000000001111010111000111000000000000000110001000000000101
0000000000000011001110000001110100000000000000100100010000001111
1000000000000100011100001110011110000000000000110110101011010011
1000000000000101001101111000110010000000000000111010101110001101
1000000000000011000110100110011100000000000001111010000000010010
0000000000000010100101011110100110000000000000110000000010011101
1000000000000000111111011111000000000000000000111110000101101001
0000000000000101010010110000101010000000000000101001101100001000
1000000000000110111000010101110000000000000000001010101101001110
0000000000000001101110100111001010000000000001101001010100011011
1000000000000101110001001010001000000000000000011011100011010101
0000000000000011010101011011010100000000000000001000111010110101
1000000000000101001011110000001110000000000001000110100010110111
1000000000000001011110011100001100000000000001111011010011111111
0000000000000010110101000101100000000000000000000011001111011011
0000000000000010110000100100010110000000000010000000101010101010
