1000000000000010010010000011110110000000000001110000111010001010
1000000000000011110000010011101010000000000000101101011011010100
1000000000000101010100010001010010000000000000111000100010110001
1000000000000010111110110011110110000000000001001100100110011001
1000000000000110100011100010110100000000000000000100011110010001
1000000000000000111000111111110100000000000000100000101111010101
1000000000000110101010000111101100000000000000011010101110011111
1000000000000001110111110110010100000000000000110110100100001110
1000000000000001101010110000010000000000000001100100100010001101
0000000000000100001001011011100000000000000000010111001010111001
0000000000001001010100000101001110000000000001000101110010111001
0000000000000011100001110001111010000000000000011001001001001111
1000000000000101110101110001101110000000000000110111111101100110
0000000000000011001100100110011010000000000000000000001110010011
1000000000000101100001011001011110000000000000101001110110000011
1000000000000010111111111110101100000000000000001100100010101101
