0000000000000001001001111001011010000000000000111101001010100010
1000000000000000111100010110101100000000000000011011100111110100
1000000000000010010011001100111110000000000010010011011110110111
0000000000000000100001001011010100000000000001001001000100011110
1000000000000110110100110111101110000000000001011101111110110011
1000000000000011101001011110011010000000000000011110001010000111
1000000000000011110101010110010000000000000001001011011001101001
1000000000000010100000111001000110000000000001001011100000101100
1000000000000000100010000010111000000000000000001101010011000000
0000000000000011000101111011111000000000000000111011101111100010
0000000000000001011101110001001100000000000000010111100001010110
1000000000000110001000111110111100000000000001011010101101011000
1000000000000001100100011001000010000000000001110101011101110010
0000000000000011100101111110101100000000000000111110000111100110
0000000000000100011011111101100000000000000000001000101000110110
0000000000000010101101110000001000000000000001000001111111101111
