1000000000000001100101011110011000000000000001100100100010100010
0000000000000011010011111000010110000000000000010100010001110110
1000000000000010111100001000111010000000000000101100000011011011
0000000000000011010010010111101000000000000001010111101001000101
1000000000000000111001001110000110000000000000111010110111111011
0000000000000011110000010100010000000000000000010010101011110111
1000000000000110011001000011010010000000000000100110001101100000
1000000000000001011100000101111110000000000001111001111111111100
1000000000000011101000101111011100000000000000100010011110111010
1000000000000011010100110010110010000000000000001110110011111110
0000000000000001010101111001100110000000000001110110000011011101
1000000000000011100100001110000100000000000001011111111110001000
1000000000000011010101010101101010000000000000001101010110010001
0000000000000011011111100101010010000000000000010000111100011111
1000000000000101111111110111101100000000000000010110111011100111
1000000000000101001011110010111010000000000000100000010011110001
