memory_initialization_radix = 16;
memory_initialization_vector = 
8002483D80070E8A,
8003C13A8002D6D4,
80055114800388B1,
8002FB3D8004C999,
80068E2D00004791,
8000E3FD00020BD5,
8006A87B0001AB9F,
8001DF650003690E,
8001AB040006488D,
000425B8000172B9,
0009505380045CB9,
0003871E8001924F,
8005D71B80037F66,
0003326680000393,
8005859780029D83,
8002FFEB0000C8AD;