memory_initialization_radix = 16;
memory_initialization_vector = 
000127968003D2A2,
8000F16B0001B9F4,
80024CCF800937B7,
000084B50004911E,
8006D37B8005DFB3,
8003A5E68001E287,
8003D5640004B669,
800283918004B82C,
8000882E0000D4C0,
000317BE0003BBE2,
0001771300017856,
800623EF0005AB58,
8001919080075772,
000397EB0003E1E6,
00046FD800008A36,
0002B70200041FEF;