1000000000000100011001111001110000000000000000100110000001011101
0000000000000001010111000111100110000000000001010011010100000111
1000000000000011001010011000111010000000000001011110000101001101
0000000000000010010000010101011000000000000000011010010110010000
1000000000000001101111111111100000000000000010001011101001010100
1000000000000001000111001101000100000000000001010000010000110110
1000000000000101011111000001011000000000000000011101000100111010
0000000000000000110000110100111010000000000000010110101010111011
0000000000000001110110110001010110000000000000101110101000111101
1000000000000010110101111110000010000000000000010111000010101001
0000000000000100010011111111001000000000000001010010011010111000
0000000000000100101111111111100100000000000000001000010101101010
1000000000000100010011001000010010000000000001010111101000111001
1000000000000110111100100011010110000000000000010000011000010110
0000000000000001100100100100110100000000000000011110110101010110
1000000000000010001110100011011100000000000001001110110011011111
