memory_initialization_radix = 16;
memory_initialization_vector = 
000071C180006C130000D95600002CA1000241F60000167A00002888000261DA,
80014CB90001A2700000199E000105D3000058678000E70F80006A8100007CB7,
0000EAEF800057720001AB3D80008D4700024E558002801300016ABD8002298B,
00005A42800055550000DEBA00027E2100011B52800218A68001CC4500000EED,
8000AB958000DA128000E83800003EF88000353B0000063B800044DC000088E1,
0000026400005502800147C5800012610000A9EA800125B00000A9C3000099C2,
00009E5E000184B68000A414800247E58000C74C8000E8FB80004A0100005595,
000124610000E9C08001269680009A9C800108BB000171A200011D4800014E08,
8001E40D0001753D000160EB0000668E800013C480007A898001BFF18001368A,
8000D86480017C5F800016C700014D248000D1CD80022621800117A780001CF0,
0000A83D000093A5000086860000158B8000D4CA80004B9700005BB48000CA61,
8000682C00006E1980002C7900002C89000014C3000138090000C2D280008E80,
8001E2FC00007B11800136CB800056438000E51A8000015780004D1B80012AF7,
80002263000033F8000180588000C09D0000ED1D8000E33B800065958000B3C8,
8000E1CA000139848002364A80008F31800004260001B2C4000056A18001C639,
800045578000B1300000FE1900008B7E800091D400000920000046D000017FAF,
8000EE378000A2F900008A9C80002D3100004E3200012B488001976C8001CC86,
800076E48000A9550001D7B68000FE0C80005C3580006BF00000E09600009DC2,
800109F88000A23D8000708200010BC000006F660000BA7600025F3F00015F69,
0000EC388000B5B700021CCE000092DB8000BE3800004D248000E34300008285,
00004B270001357D80008302800190AD8000429D0000E2288000E12E8000FE24,
00004AB980012D5A80008BAA800022390000D01980021C6080008EAE0001C1F9,
80000C0080001ADF800108158001A0480000CA4280001C23800078190000386D,
8000BDCF0000CA478000C8318000ED008001D27F8002342980014BDD00010B40,
0000712E80013B3180000F3C8000C8FE00017B5F80003CA08000607780005D4A,
8000B5A40000C67F800027D480020CD68000562780024FC78000751F00005EF9,
800041B10001AAAF80009B3300021B6C800059D0800070728001CD8080011AA3,
00009CCA8000D1250000A0DC80008865000011E880016AB3000111090000C532,
0000587380005C6A0001D2140000A10200008811000156A200021A5380004C18,
00012E31800010BF00019DFE00006DE100002EEF0000B90A000215E800011711,
00013B7100037F75000173548000C87F800039FD00010DD0000061B48000C90F,
0000EBB60001FB4180000E37000050E100007B9B0001DC7F00002E6980011E7F,
8000DF52000253068000D7A380011A5C000021570001286800016E378001288A,
00000C51800005D50000D8D400004A5C00003189800021F200007FAE00014E77,
000124400001E1BD0000568A80020D3A000036A400012DBD000113D40000311F,
0000127D800072CA000080A9000019BF000032818000A6E280012DDD0000350E,
8001627C0000C79A800037BE8000C09800001640800058810000DC708002F3E7,
00006AEE0002AFC90000ABE0000098AB80015E3F00000669000030A900017AB1,
8001F9EE0000935980002EFF80008EFB000101BA8000665080005B0300001FB3,
8001FACF000093B5000086A60001C95100010FC1800195D2800000A980017DA5,
000151508000C8C50000AA9580013B2B80000BB0000102540000405D00000749,
0001325C800194CC800080C6800047BC0000B7FF800029008000091080001635,
00002110800091D7000058518001AC238000587E00005499800018C28000FF9E,
800018A780004F4A0000595C8000EDDE00005482000022FE80001FCE000048EB,
8000EAEF80007942000001FB0000D67880010EF48001B4FD00000055800076F3,
00009F2780000F860000BC810000A5638001937500005B5F800013BE8001190B,
0000495C000055C680006FFB0001DF0580003DF00000694C8000607B00004A31,
8000029300007EB180010B6E00009CA000009BE48000E80500019700000119D0,
00004A028000FE038001966400003880800105B7800207838000B3AD00005ACF,
800165C4800056240000CDE18000663400018CF180018925800163A98000FB39,
0000E36600005B5C80005ACA00014E8B80001CE98000B0948000DAF400007ECF,
800283AE0000B2748000D7E10000EB928000A79F8000AA320000C06B00006609,
000050460000536700010012000054EB8000E56C800061910001666F80013AC2,
00007C38800113858000471E00022E0B80026D1A0000F99A8000DD098000FFE2,
000024DE00005D2700011ED0000220A7000078C88000A96E800035D380002CA8,
80003A8F000195438000FE5B80009D130001597C800066870000CC1D00003A09,
8003116B8001421D000145890000FF4380012F7A0000A01900002FBA80001DA1,
0000FE4E000097C90000337500005F22000078B800004F3780003F6F000046A0,
00019EA30000908500007E5C8000793080002D4880006DA38001334C00009C29,
8001364980014AA78000CB8D80018A97000060BF0000DF910000CC4200001142,
000022368000358780011EBC8001F37F00011F868000CCA280018AD400012BCC,
00005EF40000086E8000A3FB80029C0380010DB58000E7C18000C8D4000010ED,
0000C6E780011081800003630000F51E8002FFA100018647000115C900008612,
0000C4E88000D583000171E10000106480002F99000150988002255D0000346F,
8001EE84800047998001AA6B8000F98A800045AB8000F34C0000C28000000BB5,
000055E580005F718000C1B40000CCD78000AA6C00014ACE00002AAC00015187,
800159B0000000F080002CEA8002108D0002C5718000466B8000E97E00015535,
800027C9800051E680008F248000E346800076FA800095018000F10180008264,
00006F2A8001F4480001AA168001C3EE0001AD9400009D35800142AE800070DB,
8000BB758002FD4E80008FEC8000599A00006C5A00011203000033E200008A37,
80008DA680000F41800010B680001EDD0000EBB2000116D580005AE1800012F2,
80001E7780016F678000D2C38000A3C800001F4D000049E7800127BF80013288,
80014188800165D680013D52800242DE0000FBEB00007DC40000270480001785,
8000024D800150BB8000585A000076930000283F800098408001D13A800142A8,
80000040800215A5800038A48002369F0001BF7200000C8D8000F73980000D33,
00002AEF80009284000044F300008D478001E970000042D18000EFE900003F55,
80000F9580019D6A0000D4E0800117788000B3A180000E4F8000762100001CEA,
000026A480015E350000EF440000BDC580003B80000145DE800015A780006BEF,
8000B9F68001F2D4000107460000278100006D538000F9DE8001676D00008079,
8000109080004B6480020E1700008C8F00016A3300008DD8800046CB0001103A,
80000B258000719F0001587600007D268000FC0B000092238001B2020000BABE,
800136E880003F910000C7810000AA098001BD408000527A00012FCB8000528D,
800099F48001163D0001EE8700016C638000CB7480012ABF000052FE800088DB,
0000A80E0000F8F20000EEE100004C4B0001158C000173FE80018BF500009CAA,
0000BAE10001538800003CD980006ADA80010DD280008EDB800106D280011970,
0000147080003B140000AB3F00006ED580020E8A80006D758000EB9880018766,
000024C90000152E80001F5A80008AA00000C9700002CF3300004255000079AD,
8001593A8001B243000156E600021BC4800060B20001343580020F7300011C38,
0000A93B800029A700003F0080008160000144D200007C818000443B80008B0F,
80021C858000A48780001E5C80002C978000370F000014180000593E80026114,
0000BA78000176B80001162C0000B58D00002E8380006C9300006C1480002702,
8001441980009EAD8001429A8000B49D00031F7F0001293B8000D7878000CFC3,
00007C428000B23A0000229F8001811B8000453300028A5C8000076C80008CB6,
00005C088001B2D5800026D580015C290000E2B20000284A80006A2B00018E38,
800286BA00007AAB000018318000C3810000955B8000FF598001718280007F4D,
0000666280016F9C80012AD0800005B280007045000198390000FE3100019386,
0000BB1800008F9D000086D60000DE90000197AE0001D2D58001004E00007837,
8000BDE08001195F000136B18000DC0B0000F15200015EA8000001CA80004656,
800186DF80012A9A80010F1E0000AB808000EFBA0000051400002EDD0001B9DE,
8000FC6580007D1780009FD68000E47C00008D590001CBC400013FF080008F6C,
80016CAF000075C7000034F800008D7D0000146D80002FD400003E1F80017E5B,
8000FE238000940D8000737000000E638000EBB100014ED0000131050000A64D,
80022DC000008A6C00007B980001E0F48001014C00019A5E00001CBB80004C21,
00008D6480015FA800002455000014C00001B59200003FED80001D8B8000FB4A,
800047E38000B1058000C7FA000029B80000E0F40001D9E80000798080001381,
00014850800176A30001E7D900001C9F8001F1C60000311C8000F93480000C26,
00002CB0800008EA000052018000967C800023440001103A0000231D00001496,
8000E53380016FA280007D02800101528001CC3A00002A5080033845000147DD,
0001143780002DD680000DA68000AFF4000183360001C5EA00000BEB000131C3,
80010A550001EB3E800015EE80014A728000B9390000157780003A4800011D4C,
8001C1CD8001F81C00003944800132EF800135460000ADC08000174A80007849,
000066490001A23C00010B2B8001814F0001579F8001CA9F80012F3D80001074,
80003CF78000D2788000DC96000079E98001502480004FDE000009C38001E382,
8000DE42800095AE8000CB5C00002E0E800073EB00013F3F0000820C0000263E,
800211CC800043BA0000533E0001C6AE00007B64000033A8000090CC00010F75,
8000BB7E00006AFC00004D660000986F00002E118001DA3300012F1B8001DAFC,
8000372C8001A5A780013A62000012570001AD2880016C740000A34B80003984,
8000279B00016C6F000099CB0001CC89000022988000DC460000426F00012F34,
000002BB8000D7B98000FD7700003C168000265880004C91800038FD0001ED40,
000108B7000084E380008FB180008BB200013A5B000034670000BD738000E37E,
000045CA000032350000740F000014BA0001C9E480010A148000BD5C00007E56,
80010A3F800091E2800018BB000098D780001DC80001179A00009EE200002F04,
8000BFCF80002EFC0000D76500003B5A0000A2C800016BAA80004DAA00014849,
0001DF4600004C2A00014B2B8000036E00014FD6000001E30000617A00007B19,
8002ABC50000AC40800064D1000072C000019C77000122358000434000005179,
80004BB000012613000133A80000A6BA000018C580005696000077B10000DD2A,
8001688F00009616000189698000D197000008B880017B6C8000071C80014417,
8000466980010F000000D7ED0000E2578000A1D800022BF08000310780006429,
80033B190000E6700001322200014C1880007AAC80001A460000256880008720,
80000CDF8000011C0000EFA38000CFAA0000F57900007387800066CE8000FC19,
80033CF9800077FD8000EA3B00000006800147C9800078A8000056F0800103D9,
00005936000086ED0000B834000004BD8002411A00006E5C000064C380014828,
8001725300004E0F8000517200006F2F0000940B800179EF8000BAF380016880,
800174648000B9BD8001C2D78000414E0000260F0000118A80006C198002DC7B,
800065E580006B200000DB64000093388000ED6480005060800079E0800051C5,
8000535C8000E94380008D8D000083B80000908F0000234D8000A8B9000047F2,
0000C900000007958001ADB200008FB8000018FC000006608000EE0000004628,
0001AE9F000033518000517E8000B528800019E9800086408000191C00015B8A,
000024A20001953C0000527300002B390000871D0000C78180019C3B00006B77,
800024D90000DF3F0000753B0001407A00001C3080003E178000DC238000C632,
00031A870001B47A80001C2A8001917D8000E07F00011EA98001AAB4800065F6,
0000DFF380004B3680004BC5000108960001B47800001F7D00008FE88002D766,
0000173580001F2580000DAF000112DF00000C57000067CA0000851B0001CAA3,
0001219E00003AF8800080A2000001A980004CCC00014028800026FC80005AAF,
8001F3E78000D874000077BF0001AFF400005390000202538000AE5B0002848B,
80007F0300003A5B800015C100006BE9800037CC8001208C000000CB00019497,
8000E9F70000948F80001ABD00016ABB00006FA98001136B000050138000491A,
00008203000108A0000109DE0000020C800069A280000C3E80002664000170A6,
000193950000CEA68001DC9F800064110000F1EF00005DD98000753C80013E22,
8000E46F0000889F8000C92D00001E028002458A800010B08000C01C00009415,
000087AA80014D880000A593000027DC0000B57C0000A0F20000DE5500008D04,
0000BA520000773A8000157580006167800047CA80003082800008CE0000EF6D,
000037E28000C3080001D7D5000062540000725C000096A78000117600004BB3,
000124B48000703A80011E8380004B4F000033EF80000EA1800012300000B8AC,
8000365000006D2C00017A058000304E8000A73E0000429100006D51000060EA,
000056050000E32F80003C45000049D580003D0080006E60000004DC00023D57,
8000D86C80007C8700005465000028D2000158E7000015FF0000A1508001662B,
8000A8FF800152870000C7A80000030E0000985080009A9400003CD90000002B,
800033D100014B5E8000419F00007324000047488000AEE280003C7580011F52,
8000029B80001576000098E20000282900013F3A8000596100014CB6800114AC,
00007CA400008F110001D13980001BD400001F490001D09C80007F4080028777,
80011A888000F0B30000DC4B000064F400000B8D800005280001149D0000EC57,
00007B1480006F09000060F90000C8AA80001FD880002AC1000024538001B323,
0000515100003C1680006DAC80005E5080009C8C0000360D80008E798002A6DC,
800076460000B0748000D49A0000E6748001142000017E1580000AF480005BA6,
80012D650000B25F80003A8A8001085300008C7A0001F06F80000B470000867C,
80001192000042E70000FFD1800278F58000FC230000F617800053850000D604,
80010682800023CF0000E43B0000CF2E0000550B00009A658000F16B00012AAD,
00006F3B800086918001735E8000639880015E0780023C6E800075C00001963A,
0000F1C480013813800153F580004FCD00009090000128740000712C000148FC,
8001BFEE000007C70000120F800008D98000B54980007CF0800045060001B2DC,
0000672A0001AF3B800065F70001015C8000F09A80006E068000ACA880004887,
80001A7500007F8B80015C69800112B2800136130000321E8000D6E40000B443,
000065F800016CFC8000422C00004E53000026128001407F000041548000B2F5,
000086D400000F57800114BC000072ED800089990000FA310000C5A40000C081,
8000E1690000938F8000FB13800104A8000071A8800073AC00013050000008E9,
0000A767000018958000C61A0000803C80001237000096100000726D800004A8,
0000D5D700005DA880000B6080000F33000111910001F490000043E7800019B0,
00001B0800005D8A00003FD30000613000005A020000E62F0000135D80006CD1,
0000AE5B0000328B00000FFA0000C07880006035000019FF000041B000001EEA,
80006E8300009F778000CE0B00003A9A8000925B0001225A00002A178000464C,
000177D8800019B58000D95700007D650001432580000A938000800B000175A7,
0000B6B28001491680008AE980002DF38000B81C8000822D80012BAC8000169D,
0000AFC00000AEB30000657C0000220D000118D380006A75000015AA80015179,
00017AA8000116DF800032D600005C0B0001F44B0000FEDF800021E300008B2D,
00012A1A800072258000EA4D000064510000233C00000721000058348000195C,
0000F5CF000123B90000F45380004940000001CC0000C3A900003C6100003A2A,
0000AA8A00003611800059270000257E00023C298000AD338000690380021957,
000071990000270A8000D69180001A59000035438000A6D8000004148001C18F,
00003A3080001BD28000A43800004F9280005119800004C88000101B80012D84,
80016AF100006F4C8000211980002EE4000164218001003080008242800125CA,
80006C4B80016C4A0000A3220000CE8A0000D9A78000C68A000075E280006A18,
000016AD800013320000549A80006FA180006506000063B6800172FF0000F86D,
8000E00C80016F840000AC700000185B8000194F000049F180021A400001C2AC,
0001ED8A8000C6FC0000C15F80013C7C000043B2000136090000387380005549,
00021BEA80010588000069B08000B47A8000C266000043EF0000EB270000A9AC,
8000D4B7000073630001129E8000C2058000A7A880002AF70000FC4300020C8C,
80000DB2800182BB80012C9880001FC98000ABD580006DCD00025C6A800076B4,
80001A3E800122238001022B000001B100002E760000A2088001A533000004B9,
000025E88000A3110000241B80005D6900003C398000B8FE8001628F8000A894,
80007A1A0001EF8600003D6E000135D5000020EB0000ABF1800046F30000ADCD,
800022B300009C608000106500013B60000258E50001344D80002D38000155BA,
80010C1880000C56000074CD000065A5800040F98000597600006E9A80006B5E,
0000A3128001059400002C410000959880012874800078BE8000CADA8000868A,
8000884200009C7D8000031580001A040000C42680000B1E00006AB680002FB6,
0000C4758000D54B0000D69780000B918000C6250000C6C400003EC50000816D,
00013D18800172498001B812000058820000DE2800000E900000335D0000170E,
00011F0E00000DB5800032838000A1B70000B0228000B1F08000974200000090,
0001ED9B80008D6500000340000008B6000130D5800047140000468700015583,
00007BC8000022AC000022270000EBCB80009701000024310000B73C000025E5,
00012FA38000A2690000935A8000D903000001090000645A800070210000B4C8,
000138AB80000DF0800007750000B9810000CC1200004A050000500F80006FF1,
0000B1ED000073AF80004A1E00007EC2800036010000AFAC8000954C00007706,
000051F58000207980003D048000702F000096278000925C0000C0B980002C98,
0001503200002850000079F50000D7ED8000824380008E8300009BCD8000E584,
800005D58000286780007CB400008E648002A25F80002C7A0001798980013365,
00001AF08000263C00008DD30001AE48000142018000680700008F6C80022EFC,
000077348000023A0000B312000003BC80004EFD80002B4F0000329E8001A4A3,
000061D880009A128000A12600007C6680001C7100005CCE0000774000000231,
80016DEE0000F10500012A700000C59A000056718001D8EF8000D03F80021BAE,
80001E85800102618000C4980001EA190001337D000131C38000B7F400000E98,
800002A700000984800042010001E5CC0000D99100011E428001D3080000F07B,
000037CF800088F6000056E80000DBEC80009A990001288300006C1F8002360A,
00004C530001A22D0000A087800028788000D83F8000C8D880000563000060D4,
8000B43080008CA200008A5B8000D9408000D08280002FBA8000A17B00013C28,
00012025000104C1800024020001437180018420000019AF00005A0A8001670C,
000053CA00011F14000094818001DF3A00008363000065420000CEA900013DE7,
800083DD8000FFEB8000CAC00001D36800013EDA800034C70002A7F180001FF6,
0001118B00003DF4000032EC0001534680000CAA80003A3C000159E20001116D,
00006BCC0000F0C0800129480000033A800088FE00011780000047C40000A2B3,
00011C120000E74B80009304800023990001035E8000EEA080000C58000062C0,
8000CCA8000010A000006AE7000048FF00010883800019B48000413400011510,
000182D50000827E8000CCEE8000867500000E960000115E8000128C8000A023,
80007BEC0001233680008AA60000FDC08000F75580005081000069FC800105B7,
80011F0E00001D4B000040CD00003D9E8000E4EF0001615F0000705600006A42,
800005D100003AC10000087700004645000007E60000765E0001189F80018C39,
80001DE98000A92080008E5900011F710000900D80013B7080007CA5800136CB,
0000AD610000F1600000C3F080006E418000FBCB0001EBF100002C29000032E8,
0000DB4D80014AA68000ACF0000071DB00020CB480011869000028670000F57D,
80002494800028008001050F000012F10000752F800038E1800032BC0001F84B,
0001F6148000550F0000855E0000EF5000011AA38001DA6F00009C7F0000577F,
000089D70000734480005EE000005E3D0000E0DF8000B2C00001436B000134CD,
800045660000E5B18000223D000083F7000053A9800022000000A8708001BBEB,
0000A3ED0001092C0000DD9900007E6600011F5F00006ABC0000220E8002416E,
0000763B00004EBA8000119080011F7500001E678000589F0000A14F8001EE75,
00005D538000A5FF80000E49000166168002DDE50000647D80009AC6800176C7,
800002CD0000ADED80006FCA000088E00001760D0000576E0000ED6380014660,
000162388001BDED0000910F0001A71880011D98800184440001C6B400002C91,
8001DE3F80008FA70000F9CE0001D7300000004E0000B21E8003268000001757,
800172A0800025DF800100FC800050D780002ACB0001F47000002F4300003AFD,
800022578000FA6100007C380000D2EF00026C4B800035DE80015662800004FE,
800029AD8001841D80005C7A0001BA94000189178000B10900016EE800023586,
800158070000CA2D8001BD9B8000A433000083180000973380006EBF80000D95,
800045DD80014E45800073C100004C28000154CA8000CCAA0000DCD080015D45,
0000C8BF0000F0EA80004BBB80012F1C8000617480000AD58000273080001848,
0000F9E100014C1F80002F62800112000000958A00002717800103B98000F4C0,
80014F6F800090C2800001D7000162818001F10E000067C08000A3770000F057,
80009A110000F18E80004A5A8000446C800048428000D3860000B2FE800187C0,
0000C6E20000A2960000D73C00011B7900013995000090ED800001190000213E,
00001CDB80000AC780000F020000EF9680010BC500010AD70000983D800034FC,
80007E040000003A800038D70000F6F80000159000002257000073E78000AAA5,
0000A8818000CDB000007B8A8000A06B8000B6A50000100880005DAD80009BD3,
00017F110000623F80007A9280000C4E000063FA0000EEB38000028C8000224D,
00009CB48000829A8000AF6F8000685100012F71000064B980008E3400003B80,
0000C51D8000223C800197798000BAA3000122590000943A000091CB000063A7,
0000DB598000ECED0000AC980001457900015F0E800031BE80005CF00000029C,
000257E68001D84F800071460000364D00008304000156968000494300028785,
00010333000082C1800006BD80002D8F800051078000000F0000230C0001B4AB,
000007A80001792C0000245C800098AD800073EE8000B824000188260000BE0B,
00006C1B0000FAFB8000B7810000F58380002DA800009D25000019C200002190,
000094BD00001E01800034070000BF55000018428000A82B80001D008000C40F,
0000131280004EB48000C10D0000987A8000CB768001666C0000184A8002390D,
8000222C000040C000006FFE0000F10B0001613B8000B0AD00004C0A80011A15,
80008715000056C000009B970000E1DD800030E48000C5ED800010268000BBBD,
00003F930000BB5880004BF1000102120001976E000072288000625A80006BF7,
80007B12800059E50000AA7B00001A9E0000B97000005D92800075FE80013649,
0000637F800035A2000060F10003038A8000CDF88000EA95800202A3800180CE,
0000D857800183B20000C6970000AA2000004E100001200780001A3D800023CA,
8000401880006BAF0000BA8100002A470000388C0001CBEA00006D4E80003017,
8000242300019F8100007F6000002BA500019D5C000028E5000189CE80008581,
80016A7580010C270000A4D400001A3E000098CE80005D590001348400003504,
8001D3BB00000CC400006B1E00000E32800069A900000F600000CF0300013342,
800039BF800202F28002BB0C8001A7D600004D7D8000AA098001193B80012F42,
80014BB80000C0C98001C1AD0000DF4E0001560E00003B56800097E100000C39,
8001054B00011B7A80005E73800121BF00013A4880010F68000015978000633B,
80003AD70001A2B880001658000002FC80005EC400016E5380009A3C0000CA32,
80008FB88000F5178000545380009CCE80003FF5000082DC0001ABF00000C2FE,
8000CB9280006F340000900E0000273B80006496000089858000A30780000E93,
0000022B800113C98000024E00000DF70000D638000049C4800081C380017E22,
80003DB8000058418000D3790000CF540000199D800115F2000129A780014D36,
800047A08000AF5300001FF00000389E00006BFB0000787400001FDA800190C9,
80009BC9800167170000FE7180001D48000112520000953500004B4A000062D4,
80002ED58000A3EA000019400000130F000264418000BED9800017A100002AA1,
8000561680006FB8000001958000B85F000059EA8000691E000048BB00018418,
00018B3B80007EAF0000B4F480002A4F0000EAA90000EF4780010A8C000274D2,
00006EEF00008C19800005800000CA668000F77D0000439500007208000140BF,
00010F310000EB5A0000230D0000687B80014CF40000F1380001035A00004A2E,
800050CC00017C95800057D280002AB8000002378000C16D00012C1D00000B4F,
800043BF0000FD368000A222800063208001022E8000FE83000092FE8002909B,
8000494900014C07000082B100018D360000026F8000519C000083B4800289BA,
800016FE00015F808000D07480001F4D8001AC7F0000576F000090498001E61D,
0000CA01000137850000DF300000A2F20000AD438001199380012BDB8000105D,
80003ABA0001724C800105D78000B75D000079FE8002798580002BF38000DF9E,
0000B73380014AD10001E23C000146118000EF6E80015C708000B99080003160,
800094B680018DD20000FE62800004500000BB6B000093338002858180008FAE,
8001B2198000712B0001A6160000F70A800032F400018F5E80013C6600009C62,
0000353E8000C1C70001DD5C0000D8F580002DED000036A1000082A880006F84,
800072BA000075F6800071638000830100001D078000D449000043258000A6DA,
000119BC800106E5000019F480001AA880012ACC8000913D0000C3E380014780,
0000FA91800197EC0000573A8000CD2B000097158001752A0000629A0000DA54,
8000177600006D7780004D45000111B000016D578000744900006B750000196A,
0001D31900006807000034F380005FB38000CE710000A8C10000FB2600007D24,
80012C4C8001134C00005E4E00000F160000465E000082CF8003F69E8001F02D,
80006D7C8000F8C000000D8D8001EF4F000135DF80011964800096AF800030D5,
0001B47E80001A5C8000C96A80008A8F8000859F800104208000CA2B00000323,
8000793F0000F3BC8000C10E0000A403800048AE8000BC8E00004AA380011EFF,
0000E49C0000983F800052118000553500002E848000D2008001337380011FDA,
8000691F800133A280006FEE800058760000A40B800021358000B17700018B48,
00000657000064D8800058B5000167010000411E000019898000B2CE00002CAB,
0000DDAD000010BD80019EA3000186E400008009800032168000791A80000C82,
800041B48000971E8001681C0001D0810000F3B1000078418001036500002773,
00003A3680007433000001F90001C9690000C8BC800012848000AE9980002985,
0001277F00001B3000008AD2000157A9000158A90000E20880026B070000EE21,
8000BE7900020AE080014D9E0001001100008A7E00010C458000036C00011543,
800054B280004C8D8001366B0001718E800012A10002C0E60001250200003F69,
000152610001B034800120B5000132148001F5CE8000727400011B2280001842,
000036E600010B2A8000C2CD800002988000E3E700002132000017B88002DCE7,
000104C400008E3380005E998000BAE00001DE080000177700002B0000008AAD,
80003435000042BC80004CD800001C3A8000973E8000E6FD8000D02E8000CE17,
0000E82080000AC8800067640000DADC000164968000964C0000C8798001065A,
8000FB5D0000E3AC000010B50001197D80005A000000B0E38000966180013090,
0000E5128002D71900016C4E8000716580009E2E80008DC88000364D0000A155,
80016F5B80015014000209C180002E4D800100F3000156EC00006CBF80017E07,
00001EF900009E1880008D87000136DB800117DA000120F800001E57800049AE,
80001FF980004FB98000447D0000B64100009D89000082FC00026A1780012C16,
000083658000A90700019FCA800128180000E26D000150308000182100006DE0,
0000650C00017045000014E48000A43280006FE60001BA5E0000EDFA8000E83D,
80005129800015AE00009320000179228000E5420000C0458000A15C000021D9,
80005F3180015E820000BAB000013EA30000448880004EEB0000B27C000044C7,
0000E1468000F49300000F64000227FF0000E3FD000183D80000B5300000514B,
0000DD880000D1560000A240800019090000B9E8000040A7800298BA00011408,
0000CDA20000026600001ADA00012EC780004DD78000C3B28001C8B4800132EB,
000021F78001BC358000A1C4000011FF800010158001452D800251B880020F3E,
000074A78001E99C8000DA270000F34980003BC680006FAF8001B68200004DCB,
800051518000458F80007895000087138000255A000053FF80010A68800027C4,
00003A8280002273800090960000F0058000BA3D8000647E8001F8E9800005A9,
80004EA7800096738000C44C00008B4B0001534A800049ED8000B2170001019C,
8000D9378001790B0000350B00001F5E00003A608000B29C80016B5E0000E5EC,
80015FA200006D1280009DE880001AB2000052F88000D8DE8000534400019DFE,
8001B93380019F050001D16D00004B8500004FE680003DE08002212A0000D41B,
800006C50000F41580000158000143A68000EFAD80003FBE80013A0F0000D1F1,
000035850000217B80006DAE0000B30F00014A5700026DDC800185ED000094DC,
00010EC20000006B8000941300005753000131F100026D580000792B00004AC8,
80001A5C000053D180002309000167A78000F9068000690A8000463C800103F4,
0000537B00009F5D80015A570000479E000060908000105F00002C7380035D3F,
00002A22000075D580014CB6000051BE0003623A8001DD3400005BDB00005542,
0000E6D300018A7F8000206C80000ED50000B1CE800144840000A57180010455,
800168C00000A541000006218000CE28000014E180007B6C0000955F00009E4E,
0002261000005C6700009BB9800181D580016E7E8001633E800093B580015F94,
0000D2038000C5DD0000721A0000893B8000BACA8000AB09800215B600006235,
00009ECE800070A70001F5980000A9BB0000BF8880008072000003F400015303,
00004ABA000094EE800003BD8000C8038001B6D080010D170001529F8001C60F,
00005D348000BA5680005EB60000BD9F8000E705000203D30001EBE600003BC8,
00012E3A0000C63A80013A2C000175E500000C418000DAC78000771700005727,
000013628000E2EC0001454D800016A380004C4180018A8B80015D03000002F5,
800020B100004813800071DD8000690B000089DA0000C20080003FC080005456,
000052D580022308000000788000F2C7800115080000504D0001A31E000005CE,
0000057F000161A10000413800008CF500006FB1000035288001748D8001AB7B,
0001B9420000525580026F6680003E2A8000D0EB0000913080020C2C000002DF,
8000CBFC8001471B80003EB50000A13D0000673400009D4B8003D26980005CD0,
80008B030000C9848002C3A1000083CF0000D1548000F37D80025EF080002001,
8000065D0000013B8000754C00007C980000ACB0800126278002835300004A6B,
000014708000BA7C800085C30000E255000061B600002E150000588C800091B0,
80011379800045B40000797A000100798000172B000057CC80001E150000AAD9,
00009A5580006AFC8000A3958000327980002FB28000E82980000AA1000032CE,
8000908C00002AD100007CA58000722380004BD30000C1AD800140A2800110B2,
8000B1588000FDB38000E0C68000238A800034EA0000BC3580006784000038FD,
8000B6290000240B000122138000110300016B428000150B800010380000291C,
00012C17000118210000597D8000D008000092510000F6E98000DD580001D4EB,
80010C890000CB558002351780001CF4000246AB0002EE6B800177268001AE26,
800103910000A637800026D18000203B80013FA10002E7D1800004688000130D,
00008A3F0000945880015C64000019FC8000E52D800004E20000942780000B85,
0000A0D400010AEA0000DE3C000122AA80011D04800132DB8000413A8000960D,
80007592000109FC8000519D80004D780000835E00000540800050330000E3DA,
0000FDCD000128B98000516200009A3C000064FB0000E0208000535A8000BA4F,
80006EAA800034F080018C910000900C80001DF080004E9F8001C6E28000E12A,
80017D278001A1868000AAC00000BEA28000AE4E80003BA000001F2A800025F0,
80007B52800018540001B5CF80001B9200011168800135C78001344700008555,
8001E03E80002517000093F9800033A500007D308002004380003B628000AF5E,
8000917D0001D310800086F68001B27A8001FDCE800067C100010BFB0000E3B4,
800082410000DEDA000180A3800041110001242D8002BFD90001E4500000FBDC,
80015DE700011F9000014F1600001B630000438880008A46800100E200014E3E,
80002F5600009AE280007BEB0000B7058000A69E8000EF28800062410000806E,
0000545B80005ECE80008ACA0000DABE80003803800217AE0000215D8001AE93,
00011B120000D95780004047800013C40001B1538000D29C00012D218000DCE4,
00003B508000BC818001B8AB0001321980014CD48000EE550000AB0A8000990D,
80005F5380002AD1800173B60001AC28000219450000001180004D4F8000DB21,
0000060980005BE58001425180002CE100007C5080013FFF0000BDF98001A9FE,
80000BC40000018A0000AF6400005E5E0000FA470001CF63800147BA80012DA2,
8000931F800049E3000090A78001259180002B5D8000BE2B8000304880004DF9,
800033D780005387800086408000E72A000183A6800182568000D3BD0000AB5B,
0000228980005839800086A480004E7F80002586800099C48000BD8680003A5F,
8000D56280006DCC80000A9E00009D09000260840001622680000B5280003FF8,
800043A200001722800036888000111A00010E8E80009DC880004F1880006F76,
8000A6A1800078D9000047860000C5B0800134DD800001220000BABD800109A2,
80016C8E00012A6A0001152E8000A02C800122AD80005DE9800101B60001AE1D,
80004908000051B78000462C000056A800000ADD0001FB4200005FE6800175A4,
800022A10000111C8001099980006B0A8000D4FF0003864F800169B8000091A7,
000086D60000E67D00007F1B8000048700012047000144298000627B80014902,
80018B290000FFD28001CD810000A5720002942E8001C4B880004E7C80003233,
00003F970001306680003D8280011D040000618180007F63800040F28000D1B1,
80008F800000D79D800225360001891400006A4300005D4A800017FC8000E896,
80008EF08000C05980010A2D8000B21B000076F300003E73800031AA80007BF5,
0000C31300002B4680010E9A80003B2F000002DE800087630000ED500000B476,
00002EF38000CD8E000086968000CDF60000BDDD80004EF3000016CD8000ED46,
800045528002EC300001FD0880005C808000C8F0800000DC00013BA900011728,
00008BA18000E120800026FB8000E201000046D80000EF7C0000B84A80007870,
8000828300004F478000C6CB800068BD800182510000EABF8000947A00019600,
8000426E80004AD58000DE64800181618002379C000076B90000894880001042,
8000073E00006C0400006CF380010A068001A8AD000004B480003C54800013D6,
0001912180024F858000F2EC80013D9E8001C81A0001DF3680001A4980006AED,
8000B30D00001283800012A0000069388002A316800066A78001942A00018873,
80022BB500017C9F0000F2E680002C488000E59380010B1D0000707980007B70,
80016BDC8000221D0000D3AF8001A5FB800092EB0002053D800093E48000A226,
800078B280000E2980013D3300005FB500000476000030DF00019DB280004DDE,
8000612980000D020000B9C780004B22000170378000901C0001411880010CEB,
00004DFE80009C79800053638000A6CD0000FD74800059AE0001DC0E80002306,
800015AA00002AF50000841F0001A0498000FD2E0000823800013142800097C9,
0000323C800141F6800085CA0000C2D600002A27000026E7000055F780008B14,
80007EB40001085B00009287800122D8800180A18001244600003A46800024FD,
0000B2968001757A80004B668000A146800053CC800041BB000116B780006483,
8000B7C3000004C58000ECDF80008695800096DF80006CB300002AE48000C858,
8000A12C00001110000219EC800050AF800214DC800140EE80001C988000A7B4,
800039710000CD6B8001049080002D7A0001333A00009E810000C35A80010311,
8001072C000042BE00018D5C8000766E00006D3B0002DD3D8000606E00007C90,
8000447000007C548001991700000A2B80014F440002D89580003B5480010A00,
80006B1D0000AE518001639100007CC700014CB50000DA30000062000001686F,
0000AA5A0000CAB98001A6E08000149D0000E04500003E510000569780009486,
80000635800010348000EAE8000114040001142680003CC780001FA500001084,
80006E5A00000B3780001F4480007F5D8000F7EA8000408E00000EFA80014ED9,
0000AA508000550480012172800039290000AC0B8001BE6D00001F3D0000F5D7,
80003D55800160D280003ABE00004A9B800216BB0001F11300005FBC00003A09,
80002F6380005FC8800137F40000B8548000FEC280004C1A0000873F80004B92,
0000ACD200014908000117AC0000D72200006F9A000104EA0001344B0000C3ED,
8000A8C480005B7180008C0500000D6E00006E0D00010AEF00016C428000C541,
8000CAC9000234400001FF448000EC55000169808002EA460000757080006481,
0000779A800053108001B7BE80005E17800034538000E1338000338D80000F88,
0000279680012AEE000006FA80004BA10000E57B000190858001002480002E0A,
00012A7E0000CF530000DB370001B4A60000877E0000141F80016E4A8001BDED,
8000524B80013E4980000AE000012154000355B900009B6D000000A500009FE8,
800035EE000130B60000194580026CA48000932C8000AF9380013B9100013EC7,
80013B31800056FF8000F2DC0000A270000052CE800179B680003D4F00010A92,
0000337A8000858F000051E3800070ED0000723600003E510001B77E80001C6C,
80002B85000041D50000243E000033FD0001F8BD8000C5270001EDF80000AE5E,
0000CBF00000FCA28000D2F08000BAAA8000995880011AE4800028BE8000FB0E,
8000807480001A06800093E7800093E40001605F8000C4958000970D000146E5,
0000A69F0000193F8000177800004DDB800086EF800089450000B5748000B442,
800086EE000067B6000008BE800004678000FB290000C8E100004EDA80007DC3,
80003A668000B1FE0000DFB4000017FC0000FE2C80010E40800108448000C431,
80000A0A80003F7180006F5680005B2A0000488D000014AA800081F9800100F4,
800100AA0000512900010EFE00004C270000990200002EB18000350200018AAF,
8000E1730001165D0000099E800057F500008CB40003215B80000470800050A9,
80006B570000668F8000A34580000BA60000EC670002792A800010DC00000C86,
8000ED850001424480007CA6800068E600030730000073B60000257D8000F9F5,
800048870000A20900008109000016F500004E630000586180001BB9800068D6,
80007CCB0001B28200000890800189B58001330280003EB680001A97800300E0,
0000148F0000C3508000A09B80000E3500006C28800148BE00002868800035F6,
0000D1358000CF448000DF5C800065990000B6CE0000C6BA000112B200008B45,
8000684680004D2480008BA4000072F28001496B8001260E0000868A800085D1,
800139BA00001110000045F78000D7A98001265A00000BD500013B02000004F9,
000072F000005EFB0000F3368001691B800014AE80018DEA8000810B80008EAE,
800219BA8001535C0000D5030001302B8000DD630000E6270000F99C800019B7,
000062328000B515000284108001475B80006EB4800066350001193D8000DE15,
000066C90001794500013B1A8001C8D9000139BD00011E2D000057A90000AFE1,
800070690001386D800099138002DD298000C8C8000090D60001DAC380014A26,
8000E6D780018F9E0000174D8000784000012E608001E2B300004B4C80000CF0,
8000824180001D4280006982800050870001075C0000759400010BC300007C44,
8001029E80007B15000058B280010AD28000026F000056B20000A72080015C01,
0000094B80009DDC80025E5E0000BC778000AFDC80000FFE80004BC180008E49,
80014C0300012BD400004A8200009AE180008B8400003C4980022D24800024B5,
0000F1C0800003DA0001896F800043758001774000002F9C00010AEA8000D6C0,
0000FDF98000A6440001778480000FF10000E11800010C8E0000041C800058DF,
0000475180014A9680004B95800018510000A9E180008D960000571A0000E974,
8000C0B00000A86E00000F898000BD098001334D80001F800001031780009658,
80006C278000810480010D3000004A590000FF59000008F00000151A800021AF,
80003855800074B7000060778000BC31800030208000C6F980008DBE000029BD,
0000E08B00004FCB0000266A8000F91A0000E7F3800083D00000AB6A00002CC0,
8000FCFB000045B0800091CF800055D7000158FF00008E9300012D6C80012149,
800012EC00006F3100002E328000AB0F00011F1D0001710F8000ACF5800157D8,
0000002800010716000012D78000285500001E9C0001146A0000238100007A1B,
800175C5000029D88000938280002D99800144D700009F9B8000C98180009D56,
80007C4A800010AA800109678000C6E48000C5680000D4430000C8C38000736A,
8000A8F1000128258000FF29000067800000C1E5800022478000060C8000A570,
80004EF38001EB2A8000D33C000021B800012D24800040A08000171C8000073A,
80002AE1800145318000C912800094D10001E16600000DE70000276C0000020C,
800074840000242B0000344F8000139A00001E8D8000430780012BF10000D7B3,
80002EED00004566000048A0800044220000A254000012C400003D138000032D,
80003619000001C2800191D100007011800055B3000017CF00001DC100004F1D,
8001052900005B1700009953000017AF0000A0C9000069478000454480004FEB,
0000A5128000DFBA8000EB1E00011833800086800000CDDD0000A93200003127,
80002BF8000126E98000B1318000808280013C6B80005AF40000974480009351,
800064AF0000E8D100007C328002CF79800103458000CAD70002E404800099CE,
00023DB1000187EB8000DEFE000103718000342180009D050001A44F000079C7,
800142E40000ECB3800098E9000020168000453200003EFB8000C2130000B4F8,
8000AE9100011DA900007D9C800169AB8000AB3000008FCB8000B505800070A2,
00007428800081CE000169170001172E80009A0A80010D190001E17E800078EE,
8001F112000000458000ED59000052548001AFB5800156D380003C4F80001B84,
00000EB6000021180001569C8001B18980014D370000B1D780007DEE0000EE42,
00016F6E0000D3078000A44700000A030001122F0001101600017C000000D7EC,
80004161000070DE0000DFF780008CE380014D81000053980000AC7D0000EB5F,
80007B27000004B8000001DE80002E528000924C00016A860000B3098001D230,
00005AA7800021D780003BAE80006A400000A31680007C8000000E6000004A60,
80001FD9000033A7800024008000BDD500008CF78000C65C8000806E800002EF,
0000542700006A4480009929000049840000CEA60000904E0001241080000CEB,
80002A2E8000D82F0000A22780006C478000E1C88001512880007E768000D1DB,
800065F50000D69680006AD4000011BD00017C0A0000BE408000432280017D5C,
8000ED520000E6CB00008C968000CD15000126288000866000003FD38001DE18,
800094F80001B62A800085708000B6ED80009F620002E0B28000487D00017F41,
00000DB100001EA3000017448000D774000267AF00002DC900001E520000B5FA,
00003BB5800037C08000A66980003CCB0001354F0000A55E8000457080012F2B,
000095C68000A6E880001B0E800064FC000077A880006EA30000504C800004E0,
000047FE80001B9780001A7B8000051A8001BFBA800010428000028780002136,
800061F980006B09800015EA000064DB0000ECDF00008CDB000096CB00008EFD,
8000225A000012F300001B8480008025000182F60000511000006A5B8001441B,
000037B8800193FF00002959800045EF00001021800152408001E1B180003C1F,
0000B764000027398000EDB480000CE300011C8700016B6100002362000106F7,
000045CF8000EC9E0000215B0000D6238000B17780014A0D8000F0FB00017944,
8001ADC90000D5020001B58E800195BA000077550000DAE70000262F00004B0D,
0000DF8D0001F8B8000345F98001BFA600009BFE8000B0B08000E2DA80003D4C,
00000E52000074FD8001E79F8000DB9D0000D7AF0000FC9F0000B7790000ECCA,
800135930001E26C80009B14000043408000234480014A7980000E9B000012AD,
8001DD180000121100021E940000AA5D800015F8000007EE0000A7AD0000D350,
800160590000B2618000B58F00006AE10001986F00006BEF8000CD458000B3A4,
000092ED80003EE500007FEA0000DBA98001B7628000231D00003ECD0000228F,
0000F1C10000DB4500008A408001085080004849000054038000B59500007375,
800157780001D18F8000264D0001E3CD80022D1500018C26000055D7000068BF,
8000E3D400004A0400007D2C800022CC00016235000087688000A60800010539,
8000109300004D128000C02A8000CCC30000DD32000012828000EBC60001B00F,
0000294B8000D16C000154EA000018A68000BB4D000088D50000396B80010C57,
0000159D000027DE0000A50F800028A98000AC40800050748001057000004222,
00006B8D800055FB00007E7400000D770001718C0000861F0000F37B80009C87,
8001260E0000B89A000160078000D00E8000EEAB8000BF248001320880008AB4,
800077B8800061AD0000ED928001232980008A9B0000DA1000002D6880002078,
8000718C8000B3128000E712800023DE00012A34000041DB000035B0000072CD,
00014644800072A500000A838000F7E500011E610000EA5C800052E380012219,
800072358000A1DB0000779D00005EF88000933B00000C740000AD3200007266,
8000E9338000C19A80007B03800133F20001396900005A5D00000DFB8000CE29,
800118A680012C6E0000CF978000128300000C9C8000BAEF00007AC90000FF0B,
800170E780004BBA0000C453800038E70001A024000155008000C8FF00003029,
00000482000027980000B80680013BE700001B2B000001EE80001A59000088F7,
80000C6E0001405A0001DA0B80000DF38000C19E000042AC8000E0DE800101B4,
0000AC1C000134140000D4A3000050B380010B600000E34D000034450001C0F4,
000070030000083100001E8180001DC2000059EC800094B20001B19F00017E71,
8000CDAC0000DCFE00014F5F8000C312800026B280015BE18000715500003D3B,
8000DD3C800068BB00008F608000E3FB8000D3868000C487800159770000CBF2,
00003BEF80011C530000006F800042810001A3230000CD948000126B00015D16,
800162378000C6D20000A23D8000E8F38002C6E40001425A00012AF0800021F4,
80009FF8000015E40000AC7880013D690000ECFD8000DAC200022345000021C3,
000154E500004DC1800064B400001B140000472100008B140000A91C8000BDBA,
80008AE18001BE638000BC31800108640001266E80002BC200009C5B00004FF9,
00002FF40000469C800060170001502E0000956A000150A38000A3E500017760,
000048A5000059B00000CA5A0000BA4A8001AC59800030ED0000FD7E00008E02,
8000F3A28000DD67800073460000E833800122420001D891000065AC00005060,
8000E780800022FB80001010000007B38000EFC1000142D2000125028000515A,
000045BE0000517A00004DDB80003FA180004F2C8000738D00000E0D8001FC4B,
000185558000C90C0000A991000037F50000B524800052890000BDDE80002C4F,
000069810000D6A20001106880000EB80002365B80005E2780001C7400016865,
8000D6AB8000127700026A128000AA84000081E00000932600009B168000BC42,
8000BF34800089C9000130C38000FFE800006C420000137C800002CA8000B1E9,
0000C2A9800051E900017A9800007F73000088BC0000A9F80000A8988000458D,
8001CA420000BA7200024D4F8000304E800012270000884280000BD28000D111,
80015A49800156910001C065800144C580003E8E80008413000072810000037D,
8000A53980003A6A00015CC880002123800013A000000C28000074458001A1F4,
0000858A00003A650000BAED80005CD200011BCA0000633E80004C0F000004F1,
0000D3868000A70B000066F40000A7368000E9C380007A888000A10700003F35,
8000063F80003C6600001CDE8000F15600009BA40001AB9E0000214500001E16,
0000B7E1800065D4000031F480009ECB0001FB308000465D8000612A80001130,
000023768000C41F0000943E000037A80000EBA380013558000046C6000177E3,
8000C04B80020D5D0000CB7D8000748C000108EB8000A0D3800064F00000B730,
0000E9B580004698000097168001216B000105F70000C75D000043E58000597D,
8000339C800104BF0002E59D8000BC0B0000D69C0000F6048000821100006C13,
0000FC1E0000D3C80000B5DD0000AE2000005DBB0000E2C380009A598000A61B,
80003C3500008E050003B143000103A580003D8A0000192D0001441400003056,
0001FD6F000071970000FED68000FCAD80007EF200001EFC800051DA0000A664,
000296B680007DBC00001EA2800142848000980A0000E35D000249548000CA2B,
8000F35A00004CDC00004AD6000192F78000951E0000FA6F0000ECDD0000BF14,
0000E579800037E900010F8D000124940001670E000117A60001131700000FC9,
800101D80000E7480001374C800093DF8000137A8001776F800074B30001DDE7,
0000A764800053D60001A895000057E58001AE718000DEF500006D1380006F21,
000060F20000CDDE00008E5680000AA9800245D580002F810000272E80008A28,
00020A328000480D000103BA0001D4B4800130A6800204A480015F768000F6B2,
00016B45000068F0000004728000E6D80000857600019884000062DD0000CCD6,
8000F18900006B520002E84D8000EBD4800049BB0000C37D800217CF800071CD,
800094C68001AA4D0000FB85000051D680012D9380008B420001213F80012003,
800077A600001185000173E90000256800020C2C800061D700002EF080023786,
8001B675000074C70001DAD6800075208000453380004B1D80018E46000084B4,
800137B6800073860002363500015F75800052C10000CF480000BFDC000035FD,
00009CBF000071D10001DC9380001C8F80009B520000981A80003A8780002F7D,
00005E9C80014543000051B880009D6D0000B7E08001285800001830800001B6,
8000522C8000260E0001619800008DAF000128BE80005ED00000329F00008068,
00003BF08000CC15000111AC8000A313800126C10000D9F0800064AF8000F7A8,
80004AB380008A700001DCE180006067000146D2000068290000AA9D8001A2DA,
80009CBB8000101A0001D836800033080000F90180000B0C800059728000D444,
8000022080008A070002B28F80005733800175D68000C41E8000B9B800008EF5,
80004A2A8000740A8000415D80005E678000BDEB0000E9610000AB7F80012398,
80012FD5000148E60001FA0780013122800027A50000254F0000277880007830,
8000854C800003AC00011B698000789E0000E2A500006FCC8000476B00003E02,
80007293000014DC00006F1B00000933800021548000A0C50000CCF58001088D,
800064748000572900008EF38000BAE58000291880015D3980004925800026E6,
8000C7F18001A6F900010A0B8000D6298000206A8000898200001F1C800067E8,
800066B58000D61B0001989580016692000099CE800088600000F35A80000CC0,
80012A560000A88A0000423B80025201800158E2800006D900006A778001793F,
00009CD78001174100003C1A000084298000A189800044AF800039C50000C630,
00000F408000BE7E8000493080018CD4800069DD80007ABD000089BA000125DD,
8000238580005B3E800021240000CDF2800073AA80019BB880004773000128ED,
00005CAA80012BD080003C020001AB368000CDCE0001AAFC00006F0C80011309,
00006828800203C200009C0A8000D015800100140000210A800040E480000C9D,
8000F7CC8000BF3C00003B9E80007F170000D2580001FD810001260800013045,
8000136B00004A7B0000C2DF80017D7F8001138F00006FDF0000F05F8000E0C5,
80012F3600008E67800002718000A34080000A5B0001C54900001B0380000089,
800064D20001165B0000797C00001C00000186478000C7AA8001562580013DD6,
0000DC2D0000CB1500003A878001B09500004E7600011FEC0001A2E980007E3E,
800079C90000978700001B258000176A0000A1F280008CFD800112B9000000F8,
8000511900007B128000890380000C8600012FDE0000F44600011B9980011C55,
0001748B000017158000849C80016E69000195A300005A44800012FD00006B14,
8001221B000039D70000FF8F8000AB988000585380004D28000029F50000372B,
800071A080000726000032AD80002573000112B6000054E880002F6C80002B35,
8000399C00005F320002028880009C008000D5E900002061000024E480004153,
0000A4CB8000CE4D0001374700005945800059AC0000A39D80008FB20000C7A5,
800129120000555600014F3D80005685000072DB8001BB3880010A7B8000DBE0,
0001921E8000151A0000874D00004488000215F70001E78B0000D67280017AA8,
80016949000030FB00006F410001C5FD0000034280008E548000435580001395,
0000D9C98000E9330001C1A08000068D800014EE0000DD7A800005E78001C4B6,
800079108000E27F00000F5C800081F80000C2EB8000A3858000AB7800005307,
8000526C00003DB00001E116800025610000C21C00012F6E000034DA0000EA7F,
8000D8550000A44E000112DE8000ABEF80012ED9800171C300001BE00000A32B,
800054180000048400028F1480010C87800154FB000047D70000105800000FEC,
80019FFF0000399F80000B0200008061800096A6800029C300017C338000472C,
00008F4700008A7F000116AF800031178001150A80013F8380001D3A8000109A,
000070C58000D8350000634B800090EA8001382100007FF1800070310000E65E,
8000FC1F80007F1180022736000039D680003DF100008DC800014A1B00005337,
80004DDB800242690000C60A800017F600011D95000108848000CFFC80019E36,
8000D54E00014FC200004A4800010F81800271A78000662C0000D9080001C13B,
0000598C8000C5D080007999000076B88000F93A000065450001544600001369,
0000FF6D80009DE58000A3358000A6510000102B8001371E80005F6880008049,
8000661D0000946E000003010000AD148000FE560000E91C800061840000B707,
0000F36A800087DE8000A63E80002F808000BD420000C50E800001F080006523,
80008F068000146780000DAE80000EF980011BFC800045C080002E2D80009F65,
00006F740000B14300000FF80000A44A000066F30001B05B0000554D8000DCF1,
00019609800126D400012DBB0000339A0000A585000075378000603400014804,
0000924A000007B200009E5500018DED80005FD50000F95F0001576B00002914,
8000CCCB0000C047800064BE800026608000CAF9800031FF80001484000101F9,
800007B5800028EE00017C2700006E59000144C3800038248000CCE080000703,
00000500800027CD0000A8900000640E00012E8A8000880C80005D3A80012CCB,
0000373B80011A808000E91680002C770000ECB90000733A80004DB800004F9D,
80005AA480000C520000BD2D0000279E8001171B0000399C0000BE5580001E3B,
000052CB8000F463000023EC80000CCE00024C3E000042D2800000F18000E833,
000032520000A8B900010F5A00000DC70000EFA68000B070800089C0800107B0,
800079EB800014A780001FEB000003EB800041850000E7D080002161000041C3,
80001AA58000E7F000019A01000031A08000BE3B0000978A8000CFDA80006E51,
800143210000D0B70000DA610000D5FF80004939000016F680002C7480016232,
8000A3AB8000FBA6000046F100002B2D800119F08000176B000065CE00010499,
80005D15000100B40000D2D8000048AE8001A3AD0001453C80004ED2800114B8,
800132EF00000B49800055F00000B97A80009D0880002967000148300000289C,
80005C7D000061020001558700001B5F0001640A0000E5838000DD2F00006FCD,
800098298000EB7200005CB3800175A480004CFB80001EAE000110D48000CA64,
0001728B0000D8910000084880023B258000410D000044F18000188380009B9E,
80013E7C0000D7370000F8F1800052610000B0590000EE7E800177E2800019D2,
8000B5DB80002B6C0001EFE080032F0A800115B680019C65000099EA8000A8FB,
80009E3300000EE980028ED380007ED40000F0728000381B000152D2800076EC,
0001D457000047CE00002851000105FB8000390D800069BB00010C488000D784,
00001E8F8000D0BB80000BF100004522000059C180024FDE0000E7008000AE03,
0000A0EB8000C8F70000A1990000A25B8000062600016888800000108000DB2D,
80008D96000137C300009DCF0000C72300004D7780002BD08000F028800100C9,
8000DA790000EDB3000071C88000A7420000F754000015410000D06E800231A8,
800027618001292D800037068000160000018E5E8000252500000AFA80011EC0,
00001F9E0000AE2F80010E2C000195AA8000E4C40000335E8000D5D100001060,
0002D6D70000E926800279AF8000247A00007FD28000308280002D788000CF80,
0000EDF380007D558000197380008056800107D300004465800042A9000089A9,
0001AB9D8000AB21800166230000EE1E000036B90001AD828001382C8000ECB6,
000138240000FF4B00001FE700006916800231BB0001089C80001869800132E4,
00006C148000A45D00004A1C00003E200000927E0000398A80005C5F00002F1D,
80009235800050A80000648C00012D67000084100000380E8000E2ED80002AED,
0000192E0000A52F000088820000D6F1000121680000752780003617000026E7,
800044B18000CDCB0000EEA4000087E100015F9B8000832D80009A1B00002F0A,
8000AB2C800042DE0000E547000244B08000A7F9800166DA800062938000AB52,
8000DD9E000024E10001E4200000954300014B29000005AD8000750580010560,
000066D800001DF3000121B700008E6900010B6400020CBF000037E580012C79,
000051F700000FA8000150750003283600001CBE000049A18000BC9480009CD7,
00006D7A80002EFB0000C57E0001B80400022E5B000123E0000046AA8000AEFA,
80000A448000AF800001F1B4000066A38000A0890001AE7700002D128000610A,
80000DC18000ACD7800076C080009B42000293D80002977300005B5B80002223,
00011DDD00012094000006800000C43A800076710000B0CA8000FD3980009EE2,
800066BA80005E9E800084F90001969B00014DFB00012DA980004C050000F36F,
00004DE180016E238000F6570001B28B80012C2500011B7900003E6880001CA7,
0000675280004EFE00010A7000005B6D000067270001122C80001FE280007319,
80001CCB000097CD80004B170000F1A98000A0AE0001597B800061FB80008CA5,
8001072D8000B53700014E8500010BB68000A0CD8001A9840000AF4C80016CF0,
0000488500002B07800029C90000052E00002DB1000171F4800171FF8000948A,
80029F4B000018498001F0238000F687800034FA8000B9D88000E3B88000D3D2,
0001DDD7800045EC8000040F80002B2180002363000004378000573400005FB6,
800136EE80013FDB800154528000452480008E128000A09780003ACE8001FCBA,
80002D9C80011EF20000E6F180013A7D00009CA9800156DF0000B6EC80006E49,
80013FB900008D398001EF688000F081000034B80000574C80002A5B800149EF,
800077888000C0978001810B8001A743800048EE0000BCCE00016B170001136E,
0000FA8200006B1100007D8A0000DAB28000165C8001082F8001200380002DC6,
00014337000097AB800167FE80014E43800172BF80000E060001DAB50000DE81,
8000560380016CDF80004078000074F900018C558001CD5680000AB70000015C,
0002361D0000145A800015DE00011C6E80005E9880005D8F8000B94B00003D10,
000068E30000511A00005C2F000319D480014A540000C7F30000619380018F02,
00003F9280011F680000C63F000121CC80009749000110178001A009800113F2,
00005F4B80008C0A0000C0EB0001A93E800051370001A250000054160000B330,
00006C92800027EF8000F82000011C0C000070FD00001CDF8000B47100000C25,
0000766700000D1800012474000066B68000E8390001E3610001119080003BF5,
00010AFC00000055800120A8000206C4800036DF0001015580007084000111C1,
00002951800028890000FBE80000404D80002065000045820000C0260000F192,
000017CE80005EC300000F0480001782000096380001DFD28001C42D800136EA,
00006E6D8001698D8000B0DA80003ED900010E4E800005610000521F0001349B,
000130A58001205400005B090000332A000114E900005D8280020AD480009420,
00005BB40000260C800058720000424780004DC0000037EA8000CEA88000C2EC,
0001E8C680009FAD00001451800070DD80001A540000264E8002B64A8001B117,
00009A3C800105510000D1810000A68300001C180000E40A80007FDE80008797,
8000882A0000E8448000CA408000207900002237000102D28000BDC300006F3E,
800052D800017A1B80005E630000C7E680013DEE8000AA2E80000E4B00008A7B,
0000297E8001B4F6800040FD0000EAF60000AB190001E32D800097E180006B04,
800043F600010A5B8000044B80016E268000793F0000320E8000687200008013,
80002A24800103F60000FCCB800023208000D60000027E1480002629800055DE,
800035B880009E048000F2C00000D5A7800042DA8001831E800129AD80005212,
0000E2CD00001AB60001BDD30001B45280000A61000092098001574800004E2E,
00008D8A0000A8F280008652000005868002A57E800079D38000AC3D8000B79E,
0001CA91800056E5800211158000FE830000369B000086618001ADF70000064D,
0000E23480026E01000106218000EEEE8000DB338000DFC98000B9108000EABD,
00001E078001C202800025CE00003A6D0000652E0000F2158000F6430001317B,
80005DD000004FE6800208D8800097A58001F1D480022CF38001668880016447,
0000EE370001ABB3800095828000CEBD00008E61800091078000C27A80013404,
0002315B800089648000502D800085860000FC1500010FD98000378A800040D7,
80003DDD00005AEF800100F5800059FC0000592800006E8D8000D2F000006399,
0001469A80015138800084298000285C0000D8658000F207800067910000441B,
0002CDBC8000BE828001EF27800011EC000097A8000085820000105C80004AEC,
0000F61E800119DC80017A880000F71E00012A638001BB6C0000C37D800096C8,
000129BE8001622800027FDC0001E9190000BD5500018AD98001B7C5000007FE,
0001B075800053EB80016936800169A2000061AC0000BDF100001E788001BECF,
0001EA5300001825000029610000ACCD000064A70000BFC3800155E600002481,
0001D03B8001DE4880021CDE800012050000B3EA0000B3F300004AE400002696,
000198BA00000E2C0000EC0400009C4D0001620900003F2380008F7F800030D9,
0000C9598001214D8000C7FE800087DB000141FE00009CAA8000A37180007614,
00013B188000690C8000246F8001A8410000D5E180010E4E00007F3280000E43,
0001AC718000D9090000898D800141800000E8FD000162948000024D000003B7,
80003A30000076420000BEEB00002DC30000071500010D5A00000785000059EA,
0000C0F98000AE9B8001C0CF80001E5680006B010000DD8E00002B7F00001050,
0000EE01800165DB00011164000051B58000F5740000C9EC0000EB3100018A85,
8000FB998000D31980002CBA0001B4550000672E800008DA000039F600017E9C,
00006950800038B90000BB8000004CBC8001C6560000EBF5000101AF00006C3A,
00007D278000D6D4000085CE000056CC0001712C0000B03B0000C7900000A42C,
80000DDC0000545D80002FF50000041300004CF800009D0F00020C410000AE16,
80005DD700015DD10000724F00014D7800002BCF80002D6D00003FAC000086C3,
0001981400007033000125DC000006D180011C5F00016AD480013457000018EA,
8000A4558001B97980005CC30000B2B0800012E10002F72800003BCE80002C72,
0001319400009A2D00008CAA8000675B80025A6F000085928001D53480010ADD,
0000EC9E8001234D000130218001399F00005D8B8001B92D8000D84D000076D6,
00008F108000B7408000331D800070D600013042800220308000F627800038F3,
00012FC8000062A1800103A380003FC3000233AA0000CBC180013A538000F9C7,
80014F7F80006625800092888000D54C80009660000002AD80005F9F0000F813,
8001C21D000262A60001EB9E000107C8000180A68000D7E40002562380000DDF,
0000B4AC000097140000244480014E6480005FAE8000F8D10000A04800014EC8,
800053F28000604480003D50000017CD0001831600000C880000407B80003443,
8000CF5E00002B6F0000C3FA80015B35800004A2000056B4800213FF00007F20,
000071900001076C800076360000B4A6800071830000047300006BF7800027C9,
80009DEF000039D20000690E000006C5800099C180017ADE000295B20000E792,
000055C3000009C58000B9B780011FD280018E328001876200008EFD00002E6C,
8000789680014D308000162C8001AB0E80003E758000D4BF8000EE4D8001325D,
8000721A8000A5638000A561800030740000C94E800202A900000D820001F18D,
00009DB0800059BA80006C218000EF7900001B070000331380002F650000E7DF,
0000C44E800080C78001A1EA80001E660000FA6F800118C380006BA80001C2B9,
000212338001129700017BD30000F3A08001EC1700006CEC8000A73E80002FFA,
000007BB80020D278000B3660001291800013BEA800083FE0000210500007DFC,
80011A25000099908001BA6600003ED1800032D38000A4AD0001EDD580002409,
80017A0D800056648000551B8001BA2C00006C170000719A0000AECE000081A0,
0001C3D9800226D20000BA5E00001B2D000004FF8001E2FC8000FF4080006862,
800113EB8000EA338001BCC080018D848001B41D80001B4E0001D274000051F7,
00003410800065968000DAE000003D6C0000F1BF0000C93100015A5400004C3B,
0001B4760000FA1F8000E9D10000BB0A80012746800051150000593A8000A1E2,
80000B5E00015D3D0000AACC8001308600016AFD0000A2B1800042AF80006209,
00010DE9000208B5000018A0000024C88000E6038001C5F280005FF3000087B1;