memory_initialization_radix = 16;
memory_initialization_vector = 
00015D09000022E680026A970000A98D00006A1B8001A6710000131C80012442,
800061E8000122CF80004CA80001736D00008A590000152D800020870001B87A,
0000F828000078C080002FD60000E2E90000A81C0000433200005C6280003AF0,
800110170000CCAC80002D2280029FA58000B80C8000CF8B80006AAD00009B41,
00000CA00000EAC300005ABB8001081E8001217700019B4780010DE9800092F4,
0000FC400000A9F50000D7A20001692480009D6F0001BD0180005FD88000D41E,
80000B438000902B000018D0000164E500007AC000004D8C8001735280001488,
80006BC80000449D00003B4B80017E5400003512800039288001391980000DDE,
800153D2000117EF0002360D00010C3C0000CC1F8000B884000128A28000EBA8,
80002BEF80003443800166DC0001455B0000748F8001534C0000BB4C800080A0,
000249558000903B00024AF58001EE1E800148718001E1750001908580023BBF,
800080B30000B4DB000022448000BF8A0002050E0001E2E400014F1700009BAB,
800046D9800040040001A589000138ED8000CD790000AC46800016E40000D888,
800094BE80007DF80000AF27800013738001A1BB8001B0BF0000430C80002FB1,
80015BC6800171C600007CD88000E5E900003E790001753C00016F6D0000B643,
8000D2FF0000A17D00006D2A8001E149800050118000294C8001CCA680026929,
8001485A80000B6D00020907800014B6000128478001B0E600011BF38000D91B,
0001593480010AA48000EAF38000AE218000AB79000169BB80017A2D80000502,
8001A34E800065E500014A848000A5D180003DD280006ED28000E2EF80003519,
8000486A0000880B0000755500000ED08000F5BD0000B8B48000D67500002A1C,
8000B24280011A9400007A4080007FD10000FCA58000D7638001E67200011CC3,
00008DF48000EA3280007E4680005A488001086B8001314C8000D6BD80005C80,
0000B0028000F5E38000AE58000019D50001E84B8000043100015030800020B0,
800053008000542580018BB800007FDE00018D578000BB49800284200000B976,
800047108000895E800057CB80006B7C800139D8000072D98000F8F28000D841,
8000585680001F2C8002423F8001A54700009FB08000918E8001434580014143,
00015D828000971B00006F670000AC578001469E00017F370002087A0000385F,
80014C108000077D8000DD5E80003D57000100F680019C57000057A28000BD95,
000052C90001F6190002411A000043A68000D5EF8000C88E8000487B80002158,
800119FE00016AA080003DE580007BDC000280498000091B8002067E0001A455,
00013EB2000072000001519C00001ECD00007B570000BE9A8001D7B980006E78,
0000DEF30000CDAB800077838001C763000081208002CA5D8000DE0780014B39,
00008111000173CD800279C600004B118000C781800007F5000170268000DDB2,
000030370000C0FE000118C0800093B80000BF7E0001EBC58000263180002901,
00004AAD8000EEC3800081D28001CB1200005FFE00003FDD8000453E80003F68,
8000B7BE00010639000004668000D36200011BC180006CD400005F4B00001540,
8000F48180001DB18000D0690001792480026363000001488000A7A78000ABBC,
00006F680000A95080011E210000F9DF0000E28E00008490000059A300002B76,
0001BFBE00002855800048E40000E8870000BEF600006CEF800090F90000C000,
8001DA9D0000A5B20000F2D9800047228000B50800018A2200005A3C800002DF,
0001601B0000915500002313800126C20000B3CB0000084380007B7600005F7F,
8000FAE000005C850000BC848000541F00003CA8000113140000BEA800015D20,
8000733F000064D18000297F000004750000049C00000AA10000738B8000789C,
0001AC920000C6A00000CF3B0000F6C000015E0500017D668000381F8001D6B8,
00014ACE800085D800005551800217A48000739600007C118000441E8000A650,
00005DBA8000E8B1000056FA800135248000719880008A350000076F80011A9E,
0000F95A800002B180003C7A80001C430001CC1300018220800139960001309D,
0000352000006997000004EB000060FB00001BBA0001176E0000523F0000301E,
8000987B80010A6E0000B45A800081470000107A0000CC52800078CD80013ACE,
80009C970000B5F600000347000050E000022FA80000E02180001DE60000984C,
80001117000102EE0000FAA080013A5680002C760001F4F480008FE70000BF2A,
8001F81D0000830A8001E9FE80004B158000A6098000203B800132208002CD5B,
000227BC8000C9C380016F3C00010E8680004574000001A70000A8C580010DE7,
8000E9D200006CD8800156110000FA80800013C48000890080002C80800045A5,
8000BD898001A6310001D1450000188F8001535B8000C8DE8000C068000053F9,
8000A5FD8000D0070000057F0000F5EF800029208001BC38000080730000747A,
8000DB05800167F780002B020001EF410000566780001C96000018D300000C4B,
80007BD580007C4E0000766F0002E8D28000047B000072098000C23400012247,
000255910001AE19800037750000FFDB0000FAD90000B9ED80011AEA0001D306,
80010736800093810000479180013BBA800010D20000143E0001222C00004CF7,
80007100000197198000179F000131E88000CC9F00017B098001849F000180EA,
0000AA2D8000451B000064C40000866D8001069F80015ED60001168100001EA0,
00012C94000271EC0000022A0000457C00006796800149B08000D53680007500,
8000DFC6800016B3800085078001C1B3800028A48001560E80017C2380009571,
8001260900003DB680007EB280015D1D0000BE9A000081DC80014A330000EC20,
000094510000C9B78001BF3C8000C18D00000C228000B84080013C0B000098B4,
00004B770001B75A80004C28800005840000C22F8000335E80015A290000A6BD,
80023E7F0000C6DD8000D33A800190068000047D0001E5228001F13D80000CE6,
8001BCEA00018D4B000037630000AB77000037298000CC8F8001B3F080006B23,
80004C1400018F4480007C198001255300000C720001FF1A80018D1C00003AE3,
8000D6290000D2F78001AAB1000052858000C591000051288001626B00003815,
000110F38001228A800143D98000ED52800063878000B2A38001760500000767,
8002181D0001190280008DDA8000A53C00009C828000096A8002167680001861,
8000A4A900004F4080004D05000027CF80004CB58000D3F88000F3970000874C,
800189100000675D00002849800114268000463980006969000054D380012D95,
000045840000E865000002668001E88000005E51000131468000C9F10000EE47,
8000410D000143618000B5D300006FDE0000C4C18001205B800178DE8000AD2C,
80009DC6800068C60000356680015955000005F50001BEF780004C930000EB38,
8000EC9B8000452D800210168000788800014E07000053AD80003EAB000059A1,
80006F1A00010D26000127108000FA6800007BE1800101338001C68C000037E7,
0000897900007AC700006AF100005D6F8000A901000197D0000168760000A6BE,
0001AB818001706A0000A1BB00016A0800006438800013A7000000AC80004676,
0000215B00003F3580007F2D000089EE00001F0280013CD280009E140000DE01,
0000C47E000023F80001003F8000FB6F800068B9000068640000164900024F9A,
00005B4200000238800024F80000B2158001A80C80007BE1800108FD80017696,
00006B9C00009035800017AC8000070B80014ABD000093BC80019BB8800074EB,
0001AE178002B43E800067630000BBAF800043C2800183B60000E3360001A997,
8000096D8000814200012273000215B1800047798000D6108000D10580003039,
80011FBD0000F00B000023B6000095840000F7DE8000F2F8800054D30000288E,
80002D340002D99380001129800198078000DD000000321D00003C3D80008F82,
800220B2800089328000874B0000ABDE00012DE3000041CE80032CAE00008CE4,
8000A8A10001F7828000BED200011B3E80007F9F8000E61F8001338D8001DE30,
800011D58001BEE200017ABA0000BE2900001D5480016B7180016B170000696E,
80013833000161E98000A8A9800061C38000359C00010FC58002D2A580005A8D,
8000A84300008A6D000061EA0000D2458000DA6D00010FA98001F62280013297,
8001679D00010D3680006062800003EE000110428001CDEF80023AB4000054B4,
8000027700011AE60000ACA50000474E0000B8F580003D7F8004A96300004D7E,
8000617F000101A880008E45000205500000C7E180003F7E8004B08100013577,
8000D00E0000F2E1000068EE8000339C80001C3B0001622E8001A5EF00002F2F,
8000A0950001BD90000063AF8000244600018E7680007C10800481E80000FC0B,
80008EE90000493A8000B7220000486F8000804E000090488001E07500003E79,
8000B0D300018421000067F800002C74800150898000E1AD8001B9BE0000F3A0,
80006500000015EB800049E600001FE7000107038000400C8001FFA08000506C,
00002CC300019C9C00008BFE8000A8EA000057518000EB49800255FE0000A8D3,
8000BDDB0001316B00000D5A800134B080014D4880001FFD800080E10000B5D7,
000015480000C85400009703800041910000482A8001DEF68001E7A08001153A,
0000CD36000130B30000637F8000C644000024058000C2288001D4470000BAB4,
8001FEE4800074EE000023B9800133BE800164F1000084DD8000587780013C6A,
8001596D000038E70000D1418000D61B8001452280017EBA0000570A0001ABEE,
800044128000155000013FCD000001160001153C80014012800183A90000A61E,
0000413C0000FBAD80005C2380002796000086D780001AAB80017C3380001A4C,
000084130000C18F8001321D00008B188000C597000159408000E74200015698,
8001271C800024FB000073598000E25C00011BD18000C17E80005E10000015A3,
8000705680019B588000344E80009CCB8000C7BF80006721000069A580012E2D,
80018D510001477A000038F00001DC0C800071B4800168288000B43600003ED2,
800142A18000C3AE8000EDA58001BE1A00011AC30000ED98000098DD00001C25,
00012392000020438000321B8000706380001CEE800023160000CD7D8002EB21,
80002EEB80008CFB0000AC358001478080000B7F000085E00000787A0000038A,
8000DB1400011F900001102700021F6F8001CE9500009D3B8000C0E6800025D5,
00009D3380001E50800051E08000B58A80001227800056BD8002C6F0000073EA,
8000EB680000527880001621800016B78000109E8001778E80003539000151C7,
8000B9638000AA1180003A9C0001545900000C08800040638001C85D800034E6,
0000327E8000DE4800002A5380006969800026E7000175B5800255830000E227,
80002F8B800016B4000067F40000829D800082210000191E000014040000C4A6,
80002AF9800066AD8000238E000034288000299C00008201800093C380002B0B,
80004BA580001C7E80001DDF80001AA1000071C1000062588000719B0000DFF5,
000000F480006CE2800045D100003680000002D900008B1F8001A3FA00000089,
0000178E8000264F0000937C0000EC0D8000F564000059AC8000F25100004386,
000006908000691A80003837800020058000024100007CDE800162FA00004094,
80000720000005D40000020C8000AEC180003F2E8000D27D8000B1ED00002BB8,
000011A500004B500000146600008229000157BD80017A9F800133608000354F,
00001B620000039080007D5580008B18800092B0000131C98000DF2F00003FD7,
8000582080011DDC8000806500004A0D8000312B8000D8560001075680005439,
0000AF7B0000EE65800095CD800077878001561100002008800026F100004B20,
80008162800010A200000A4980004F3F8000723F800036C30000C4B480003BA9,
0000E0380001957E8000FF07800053B28000B5B00001253F8000193A8000B35D,
00000D5F0000FD6D80002EFF80007FE20000B1FC00009164000033208000913F,
80000CC000003161000182F3000046580001503F0001AD0B0001555F8001F8EC,
800102378000B7A80000BB7B80023929800162DF8000B5470000C25A8000C7F8,
8000A7A78000E877800117F08000474B800115DB00008EF98000432400018614,
80002CEF000030840000E6058000C043000112D60001340D0000484880016E07,
00011A738000C952800088FE800055B000005DB28000495880004F7A0001BE3D,
800008FE00009D470000252080005CBD0001171C800006480000249B00009AE4,
0000A94480002C0000003DF90000E933000115DB800131FC0000D436800090AD,
8001CBFF0000072580009E49000082C7800035698001ACD7800027780000BB26,
000035CF8001515D0000651680003725800027C68000357D00005C7100001F5A,
80018FFC00011AB1800027E80000964D00012D3B000175BF80002462000077EB,
8000E417800078000000E0CE8000907E000103798001199D80006C7180011B4F,
800021B900001FFA000018E90000C7968000A083000293EE000033A20000542C,
00002F0C00000CEA00001224800037B800008CF600009BD700001C5900000733,
000000EE0000A115000056E90000972D000150AD00002B348000E20880000E58,
80003924800093F20000575E00004C2E8000F5A60001112F000036CD000024E9,
8000318F8000174E0000117A00003C52000071CD8000993380001BAB80006436,
80003B2C000015710000AB1D000024978000F4CE80002FD900000C33000077C9,
0000281C8000A4B6800068288000344C000053B68000A9DD8000AD2480003920,
80002A8D80002D55800014DB00007BB90000808C0000655700002D7200000E67,
8000044D000061ED8000305B00004E248000EE898000E7A18000AEA600001699,
00001A59000012560000228E000062DD0001337100005FE78000A4C680006390,
00002352800008F68000425580000099800053A980001B0500000A3500001A30,
80005B3C00002BB5000010D500001AD880005EF8000120DC80006E4E800015F1,
000060E90000458B000054D98000637980019145800182C88000A32F800004FE,
000001048000275780001FCB00005E0500007E1A0000AA138001174680002365,
0000C7BF80002BB200003FEF000053C100006E30000074B90000550F00003733,
00004DEE000075A700000CAB8000F88380008BB8800151C280009C7E00007995,
0000FA80000066390000B34980002EFA0000096F00000CEE0001922200012A1D,
00003CAD80011D3800013D1C8000690380006C8400009E588000069F8001EAEC,
8000AFAF80002FCA00010BAA0000769500009B868001641800002114000038B8,
80003AB48000208880012B238000C9F1000031318000977E8000619A00005EFE,
80000D5F00012E84800018028001CB3C8000DAAF8001CC7E00018E6700006E6B,
00005D08000025870000760D80001C1680006AFD8000B989800019AC00006F61,
0000962000004F868000A14700008B6C0000D64F0000980700009A8B000090F5,
80006A060000F94A000018A180009F91000126858001EE25000037910000BEAB,
8000B1620000EDC0000031A78000F2D28000EC650000A5D880018D6900018671,
80017E46800004630000BA160000DE97800155AC8000D11D8000DEED80001005,
800018B400009BBB8000254E0000D7E400010E3E800042680000C34300016802,
000081F4800094B780004E8780008BC600000975800008EC8000D6F300004D68,
80007F0280002348800022D100003F83800089868001EFBA00003D660000D440,
80005989800063610000107F000015BE800028F50000AEBC0001777F00000508,
8000A36F000019510000219000007B4F8000696A8000316D80016A770000AC0D,
0000204180009D3E0000631780001BB88000E11400008B760000D9FD00004CE8,
80000D598000132B000043BA0000AA280000FDF00000B85D80007217800000D2,
8000574A80008D0C00001E9600007773800139570000322B80008A20800014E9,
80000FC800001C540000F3A5000068058000450300013E3E0000502800003963,
00003AD98000775A00006130000056A18000325780001CF280002F888000117D,
800083FD800096EF00005EF9000019658000682D80004DBF80002F3300003808,
00003888000001A900008CBB0000491C8000712F0001379E000035F680004A76,
80006B4380007C9800006DA8800040C38000D24200005A60800019510000AD5E,
00007ED10000479E0000557C0000666C80001CA00000A809800020A38000CD0C,
0000851E00000F4500002E148000287F00005D54000066718000027900002689,
800020EE8000484C00003ECA800031FE0000A5940000CDEE0000A69300001E83,
00006AA20000C8490000750F800074BF00007D46000044A9000042510000134B,
000066270000483380006DBE000063A6000074E6000042158000ADA080010778,
00009E0400009970800089AD8000A3908000FA878000EFE00000830380005DDB,
0000ECE780001F7E800055930000D6F78000A95D80009837800116A50000EB12,
0000E2E800002FB500006EED0000FEF5000077E900015F7A8000C3D90000552E,
0001FC030000A3FF80005DD8000089198001101C8001705A0001A63880002C1E,
80016EFA80000DA48000E8F6800082A10000CBA100005249800079FA0000912B,
0001452A0000EAEF8000739100002B088000107F00003C5C00014C578000B8F5,
800022EE800154A600007829000010A5000005D98000A7968000A62B80006211,
800192B900015BFB0000746E8000773E00001AB5800225AA0000C83B000040DB,
0000359180001D1D8000D91480005C0A00007E810001582500004A7F000028DB,
8000781F0000E55C80003E1B8000FDD080006EAA0000DBEA800001708000000D,
8000702580001AA10000F691000116C0800081EA80018C5B80003C390000C069,
80008190000069E580009549000016C40001C18200005D5B0001849A80001943,
00001FE0800047BC000073CE00010067800019520001D3688000915C80006D49,
000065890000111D000049B3000069250000D54500019FF88000A19A00005943,
00008A8880003B420000259C80000BB0800143E80000AEA30000C74A80002D69,
80002F6B00008AAB000041110000409A0001890100000E64800004EA80000A98,
00005CD8800041940000B1A980000E3480003B33000227AA0000229C00008E7B,
800077708000451D000027C50000197A000152B6000062330000DCB100001FD0,
80002F180000149000001DBE00000B068000D60880007A7D8000500800004ABE,
800050A58000B80A00006CDE80002FF58000B11180000B5380001556800068F5,
000027BD800032CB000075920000956D80001A0A0000FDD6000059BE0000330D,
800043EE000050D400002F198000098E0000411F0000272700009BEB000016AE,
00007E9B000011CE00006B9E00008C1500002A6A8001AEFC80004F8680004DA2,
00003B9D00003219800018210000125D0000C719000022EB0000183900007A43,
800010F380006BD400004DAC80000B798000323F800012390000B8B1000067F3,
00005A5B00001D65000012F30000AA0C800070760000E16E8000E21D800014F1,
000116E080001C6580009B9700016CCA0001580800004425000000AC000038F6,
8000570D800000E68000189B0000D10000000BAE80000EC900006B85000003AF,
00013BAE0000A0A90000610580010A69000067AC8001E332800146F18001A4C3,
0000C2CF0000ED300001D58B8001192980008F7200001D0400008EB800006B73,
800041250000422F8001025F800054440000DA51800096B90000447980009C90,
8000ACE10000FFE40001329980006E9C8000CE1B00001732000061558001B236,
8001B2C08001890300000D3F00018A198001F9C680001C50800058DF00006504,
800088A100012BDB8001AC728000082D8000222D00001C5B8000AB6A000048B2,
0000A75B00008905800056D3800009D48000EB2200005E6E00015BED0000D4EE,
800073E00000BC0A8000DBD6800027B6800118520000C4B0000074C900018628,
8000EA34800078BE80003C678000EEBA0000A1810000312A80005AEC0000ECBF,
8000CF1A8000ABDF8000E424000029EA8000AD068000AEAA000083600000BDE8,
000003AA00007C85800037F580007ABE0000720900007E4C800119EA800001B1,
00007B9F0000418C00000C71800014B680001CB20000B5C700002D110000915F,
8000220A0000BE2400007204800026E38000164C0000BBB70000AC7480001B30,
80009D7D000046668000405B0000093F80006698000068C60000AA4080001FC4,
0000055480006D3200001965000115E880016E0400010284800096B0800016B6,
000021260000165F80001EBB00007F2A80012AEB0000D1A50000617600003047,
80003D680000058D000052F50000ADF70000459200016A2D8000656A800063E2,
000024348000509C00005700000009C380005295000246A480001AFA00001C3E,
0000077E8000151C0000735F0000AD208000895D00016F0A000000D900003F27,
0000018B8000B48400001FEA00005C6C0000143E800114A30000371300006861,
800074890000726800009F8C00000F950000E0AC0000F454800002AD8000728A,
0000B029800079BD000020F10000A77E0000477B800075BF800052C400009739,
80006EFB8000129C000035D780002C8E00000053000027F00000A062000068DA,
0000686F800095B10000420C0000753D80002C5300015387800093478000256A,
000052EA00009EBC8000081E000081E8000075ED800122878000426600002C4F,
000020DE000029F20000537A800008B1000060FD800099A70000597680008D64,
80001BED80006A04000090D68000650F8001545D000060B38001174D00004D59,
0000E90900013FBB0000F2998000187D0002DFFC00001B3E000041848000ABD7,
0000FEFE00003047800028EA000012CD80014664800134BC80006BFA800078D8,
0002ACB400005C83000040358000CB1700039846000154C400006C118001822E,
000208318000EA4780003A1580001B07000007190001533E80006BCC0000964F,
8000976F80001D440000E5B38001200A0000074C00007497000143F980014524,
8000D15180015CE000017D6A00013D3C80003B2B800000530000705F0000B7EF,
00003C510001397C8001072780010E0980013B1D800086118000690F00006FFD,
800081BF000077A900004C4B8000AFF900005128000021ED0000C6B880008652,
00013E50000060A70000B33A00001FD880014A95000152D200006A7A0002A87E,
80021860000049260000B8C400002A610001C7FA800014008000275C00014D8D,
8000D25B80003D090000401C000161410000E2A60000462D00007DFD80001EFE,
00009F6A800077590000D8FE8000B99C00007E2280007B57000152DA00001A01,
8000D4D3800054F500003EB800008C040000FAAD00008FBA800090DC00004EE7,
00006B708000CBB9800055890000F1A9000013AC000148FF00006AFD800066B3,
00004451000022E700004D4E80001E9B0001282C80016038800066630000376F,
8000788F00000C4400007E4E0000161A0000146D8000D48200006775800084D1,
0000C9AB800043EE00002357800007AB0000242D0001EF9300006A3A00000F0B,
00000DEC00006AF300004517000069BC00011DA6800083B20000C3D600005C8B,
0000010D800064EE00003A640000A7F4800040D200031AEA800018CD80001CCF,
8000FB42000010B00000868E000049CE0001655980013ECB800013CC000083CF,
80007DF1800056310000613B00009DF9000075BF800047B6000046AA00009392,
80001E9880005943000008F50000AFC1800042E0000056BC80000EFE000094FC,
8000AB62800019C000004A730000848500000AA6800050400000AEF9800020A2,
00003E2900002318000050930000DC160001F0A48000AC69000052D30000276D,
00005846800016B500002F780000A4AF0000CE62000097EF000056A1000051C6,
0000430F8000E518000077600000257E80003AB8000029DD0000893A8000262B,
0001232E000054518000167E0000884200020EBF0000D14B0000052F0000AE0F,
00003B66000001DA0000400880007D420000553A8001496900000E77000039D1,
00008093800046D1800013340000DE4080015C19800065C080005D9300008C10,
000134C200012C3E0001EBDA0001544D8000399E00008FBE8000CB348000091B,
00019CA0000015180000DC7580023A468000067D0000AA0B800130BA80004E8C,
0000D80C000002210000C21B8000B0718000E53200000F8A800127A2000063E0,
0000224B00000BE60001BE58800030E68000717C80001DD280005B790001A806,
000057FC00014C1900016BEF8000EFCB8000255C80011C9480011201800082F6,
800061A7000025AD80007DED8000BE3900000293000180AA000032E20000A8BB,
0000327A0000D4ED00008049000075528000676E800034C40000BEE200011427,
8000A0FF0000782300012B02000111D68000951A000109410001C6C40000FB5A,
0001F85A80000F520000E7268000F3260001BBAD8000937580010DD380011BA7,
8000CA2280000F6C80003C540000C76F800030CF000305108001107E0000EDD7,
800104618000CC5D80003D880000B8868000454900009EAA80003E1180001721,
00011CCB000055EE80000F6B8000E5ED80000ABE8000FFBA80007B0B800054DA,
80002B3200003BB2000049E080008A04800251298000C6888000D0FE00003FE8,
00019FF480000A368000080300003DDA8000AF8D00002797000100A18000888B,
0000D2338000523C8000294000003BA780007957000055DC80002C75000025D7,
0000603F0000680D000022A80000FC7980005FCD0000984580008B2C8000C43B,
0001091880003BD2000015FF0000057B800052FE00009072000072F38000B245,
00006BEF000114D50000214F0000FF9D0002D47C8001072880001B3000000358,
000049C00000023C800003E20001309C0000DFF88000CB88800046D60000AA74,
8000260C800091260000001F0001C17B0001FEE60000DC11000027AC0000C546,
800091B800008CDC0000B7EB0001038E00018ED7000093ED00005E5700005641,
800091DB80006324800053B000013B400002DD79000063BD80001F6F00005A5D,
800186DC00001C6700002B4C0000390C80013BA000035BDB000061A900002137,
8000A447800014E2000028440000AB570001FE2C000047AB80008B8B00000598,
80014B0400007A95000011DD0000387E0000EB82800041648000504400005B88,
00006D6880005A4E000032320000A1EB0000D1AD8001920D8000151C8000AB10,
0000FB97800092BB0000230D00005207000116718000BF9C0000B3C600001A6D,
000100840000842F000051D90000509E0001497500004BB68001836D80009A29,
0002E9120001870E0000576B800053E9800125D88001CA9380013DF400006597,
0001778000010F290000903B80014D6000001B430000FB2480006A2B00008765,
0000DC8400006539000039410001FF670000252F800034F0800156AE0000148C,
80005F5D00011A9D800160C28000B7ED0000E5DA80006C640000B85D80004437,
0000643D000143938002103E000010AE0002B5A4000016DF8000A4688001C709,
8000DA6880009544000004C8000106988000AC0C80007D940000B0E480010B73,
0001225500001C2600016D5000014E1C8000DA5C8000C9660000CA0200017FF8,
8001595D00001A6880002B1D8000316C0001CAE48001B8038000ACC50000DACA,
0000D615000127DC80006A92000118C680011C050000C14E800017D70000D5FA,
0000D89D8000B05F800023DF8000558300006013000222E20001265F8000E0DB,
000097FF00001B770000507C00002F9D0000819F8000D66200004F7C8000797D,
0000C8CE8000B9A9000072C400004D270000F7F70001F3120000784480001DF9,
000038328000790700003017800040870000178B8000724A0000B67B8000FF28,
0000AF9F80007DD5000024900000626D000157B780005B420000154080001AF2,
000011EA00009FC4000062E18000FB8100006E5F00000602000056878000AE2D,
000062F0800045D900005B4D800030DF800075C500019DF000009A658000367E,
000050A60000342F00001E2B80018B5780007F24800079E70000AB2180001DBB,
0000B7570000A15D0000C5B9800133550000AE2A0000BA6880006B6C80001670,
0000BCD90000063800003E958000AF2E0000B80B0000EE76000093480000380C,
0000942D80012C7A0000223C800015DF0000A32200015A3000013F000000EA40,
000017608000028280002024800010A88000D6228000EBF60000523A00006830,
800001DB800009DE000079DE000001E280002EC58000D2740000A345000029D5,
00006115800032910000236B00004A4D0000DCED00007D7E0000B5C800004D65,
800012108000467E80002413800036C7000108420001CD1600003F35000014C2,
8001878E80006CC500005A24000005C0000098288001064C00011A870000299D,
80013C510000CE5300006788800010520000B6AC0000716B8000AA9300000A39,
800032468000CE250000BF32000084BD8000039600023A9180000C96000106FB,
0002926580008E4E80001D1C8000CCAF80005EEF000244E0800076098000C6B3,
0002E94B80002C200000F1DB8000852B80002A08000084BA8003536E8000A02B,
000177570002C8B900009CCC800031368000955B00000A3080014E048001149C,
000088FA8001D53500005B7980010BC2800193C5800162388001AB7C80003998,
0000618280008DD380006BFA0000464880005EAF0000B4270000863200022D0E,
0000CD948000D020800031B780017F7F8001071D800045DB8000712C00004AC0,
0000F46F80023A23000061C480009900000091438000513B0000EC34800008A9,
000117040000C55A0001335400000DDF80003CCD80007841800130180002165B,
00001E518000F11B00002041000097080000D5038000B2B080003391800109F5,
8000E67D8001137E0000397200006C1D0000FD47000098D600003D3200004535,
000110088001111580007810800071F10000174680012BC880003D68000149A2,
00017098800016840000F72580011A710000188D0000E7FD000138E40000210B,
0000B01300001196800039A580004AEE800141EA0001EF780000CF530000B3A6,
000032090000BAEB8000208180004B06000026C880000223000005FA000028D5,
8000CCC5000075BC00001BD78001795D8001B535000057BB0000768180003AE6,
000075A10000322E0000170580009E3300000C770000315A00006387800021DE,
000052EF0000CF19000030A38001D2C90000989200012CB500005CB18000D475,
800022B00000DC49000009D680010ABB00015B0280006ADF000045A280001397,
00001CCC0000ED5780000C9880025F2A0000DB5F80003B25800107AA8000E0CB,
000030008000B26800000C93800397D7000026FD0000E69C80006B8500005574,
0000E63B80004FD400000A78800181A60000070D0000736C0000C17F80002849,
8000373080001C0B800003AB000043B500020B3F8000A8C50000B82380001F8B,
8000398C800020DD000010FF80009781000011988000E00000006AE980004807,
8000533F80002E200000394D8000731300002E378001DFF90001389200003D63,
80000F0B800040260000148900006FEA8001304C0001451B0000446A80004DF3,
000023BA8000716080003299000063C50000FC11000024268000487080008A35,
8001DD0E8000AF52800098F780001D5F8002AD8500011FF880007EB680005BBE,
80034E1480015BDA80006E8780001E8A8000A9068000F9A70001F5C080019F6C,
8003C5DE80007D6500005FB58000148600011BF28000ED29800139E38002A643,
8002394B8001922F800053FC8000B7E080004C43800081EB80030F5F00000B89,
80011F78000044BA00002A978000408D000041CD800000B90000165380006D7B,
000022FC8000BA8A00021A7A8000563080005BC08000FC1F800014940000509D,
00004E65000094FA0000A456000137D9800187560000FF8200009A4200008858,
80005B5B000053718000E77300010C51800040F10000F6540000DB0580002BB7,
8000231700015156800055E7000078E60000E2C88000791E800082C18001D768,
0000AC858001CFDA0000FB68800086408000093B0000218A000055218000D82B,
0000448D8001275400017F0D00008E8C000006D70001206A800068040001A08E,
000048AC0000FEC60001F5E78001FE7D800208F2000009AF00022C3280003B2A,
80020594000233480000817F800184BE800003E28000BFB18000554E8000828D,
80012B5E000128E28000A1348000BA6000001D568000B0208000ACCA000015E1,
000071690000F4D80000BB7D80009EC600017A1C8001B9100000A2A680017DED,
00000E6C80004272000021178001D847000009450000B6B90000B5AB80003468,
0000B4BA00003EA10000128C0000579B0001056C000049BE80002ED28000A098,
800039B70000DE8780004AED80009341800037EA8000697400006A87800050B3,
80003C5C000040D78000344D0000CF708000FC458000326F80000C6480009CFA,
0000566F0000319A0000423E00003A8D800108C0000157BF8000BA6480003864,
0000360580007CC480007BDB000012D5800045BE80000E5C8000718F80001061,
0000460080009D3D8000445B80010DE58000A14B80004A000000403F00002C7A,
00002AC88000BB6B8000440F80014E7D80008337800021D30000551A80004175,
000040A78000733F000004618001758980002FCF000224D00000C7C100003720,
800047480000020E80003D5880003B19000018208000A6650000126580000D75,
000057E080007CE480004D58800096AB0000FB920001355A8000638A800028B0,
80000386800087F4000023328000F2A50000D1120000D58B00006086800021F3,
0000BAA38000FD5F00005C820000212A8000140580011AD1000163EB00004600,
00001417000020A68000635500001F90000121010000AB360000EE3780007EB8,
8002DC8F800000E60000B09080007B4B00026265800075B80000A3D080006EEF,
800586080000FC7F8000C3CF8000608980006D230000659D80019E71800113A3,
8002EBC40001589F00000FEF00002A990002146C00002503800173780000FEFD,
80012DC0800070B9800107A40001750F000192A400017F028000EB7F0001C773,
8000272E8004E2A98000A074000109B000000E8E000087708000FAEE80010F0A,
0000F16D00000B7C00002417800093F400006B4C0000768980020BEF0000B234,
00016D85000081FE00017609800175EE00004BC70001B64C80019B9A0001C8CC,
800079B60000D0AC80000CBF800125DA0001209C000013668000AC9F00004D46,
000181FD0000278B80008E7300005D0B800177E900017EF100004EA20000F2CE,
800051740000E3488001229680003739000149B1000047908000CD830000A1E3,
00008BC2800077558001883A000004D8800190860000C06F0001B9960000AA2A,
0001608E000027DD0000FC018000C4788000264F0000A8E30000E07780009880,
000123DD80007EB100000D8180018CE200010C0B80006BC700009DCD800108C1,
8000E7930000A51E80005E9200005F328000E4B4800021898000165900002B79,
00000F650000A133800043EC000029A20000A1D68000FD2000006DEE00003BFE,
80008C02000084718000474880005917800037020000EE138000D25080007519,
00008B07000012630000169C00006A748000276D0001B23F80000825800011B1,
80004D76800025C380005F5B8000AA228000FD0A000024728000277F8000C9F1,
000012C48000435B80005C4F8000211380003B5C0000B4E580004AE4000001EB,
00003BB9800023A8800027BF80003F4E80003A1D000160D6800013E1800091A3,
000058888000AE3080004C878000EBEA800037A6000168C680001AEE00009990,
000089790000453F00002FAB800003330000CF0F00006136000062B8800026C0,
00004C788000630A80001F1980008A240000618B000103260000BEE7800038DE,
80004D7F80000424000014CB80007965000096A90000F14E00008AE680002CD7,
80004D7E80004C6A0000128B80004E5B00002E360000E6E3000125F500008255,
80000DBF000035EB8000705C80006A530000885B0001FF02800037FA000027B9,
000019F60000821F800065C980001E4980008CF4000066190001339C80005658,
80006CC5800026FA000078AB800051C40001726C800090FA80000B1880006519,
000007FE000186828000662000000F4D0000689080008621000044D080000635,
8003C8770000F7C600000235000045A98000AF43000152A380011AB70000520C,
8003B80A000298EF000000FD8000BFBA80003BAF00008A9D80014B038000BAF3,
0001AD4C80021A4B80013B878000DDBB00013C858000206A00005D220000661E,
80001EB78002537D00009EC500007E7A8000A2738000276680011EA300007F09,
00004AC9000142800000A2328001BFA68000402A8000013D0002570B00011375,
0000810E00003A038001643F8000DAEB00002EAF000023BC0000F0658001BF4A,
00011000000138110000AF03000019470000A12580016B78000107CA00019CB2,
0001107100003A7780003D5E80012840000085750000CE9400020D300000B3AE,
8001F15B8000162B80004145800082D8000040D38002455B00018F7280004A2A,
0000745F0000E0AF00000C27800002FF800008FD0000A7D90000A52C80005CEB,
8002A75800005A0F8000F5D300010A660001022D80011881800148FF8000C625,
800000C900004D7880007C788001F360800007CE0000CD29000045F00001A3F8,
80002FAD000062478000116A000087530001235F8000694E00005D668000B8AE,
00003ABD00002B89800020F78000322C80004481000181F4800012918000A3B2,
00005FCD8000184E80000776800007878000154800011FF000003D4280003E5A,
80009BE700001DAD80001D9A000033BF8002AF5C0000000F000090D2800080A5,
000017F30000434780002765800041D50000784B8000B59000003F9E80002A38,
00007B40800001E4800041F48000D08A800152650000D3B58000CD358000166B,
80003AE780002CE48000573F0000265D0001BD540000B34D8000910180003135,
0000AC6B8001147F8000CD0780011AAF8000569F00017B2680004F6000002562,
800042E680001247800002EA8000653E80006A43800045B500009F3C80001464,
000002B480002369800017DD80003DAA0000262980000FEE000055A400002FD2,
80009A2080000C5580003522800011BC00004B8A8000EF570000C43F80003414,
0000B7F80000766700002DA18000345100013C6800018A360000D02800002B23,
8000299B80002345800009108000637B0000077F8000BACA0001466A000036DE,
8000A08F000062DC0000A9770000760E800091E5800036EF80003B550000422A,
8000484800013DE2000022418000617180006D940000CF8F8000D01400006A10,
0000ACD70000AEA5800078FB00000797000028FA0001B985000092EF00001549,
800250F800011F750000853980004B53000024028000739A800038D0800035C8,
80024FE10000095C0000872200007F888000ABBE800003D380025C2400003714,
80012CA50000CC1B80003CB400013B2C00010C6C00004F2980029E7F0001D734,
80005C8E0001262F8000CBFD0001018D8000ADC48001042B00010EC4800042A4,
00009A20800073C080003BD48001E32E00004FDA00009AF300003F7480004A4A,
8000CA3D8000B2FE00000C478000F6DD8000B56A8000A9B680012F2A00007349,
800175650000BA4500006CA580016FC180003B1A000298CB80015DF800007B53,
80004F560000FAEF000180F88002767500003F758001B13B80011ED900007194,
0000ACA3800089B680014F7E8001C390000101E00000D0450000C2CA800010AD,
80017A670000B33F0000943B0000F91900022604000058338000A3CC00005BAA,
00003BF28000D4FD000014B2800009ED0001361A0000B9F40000DB5080000C05,
800010D9000028BB000023C50001E3028000090580009232000023E7800161CB,
8000EE5C8000176380004CAF800029770000A8078000B323800029110000076B,
8000E6AD00003D040000286500001DDB000056BB80005B6D0000F94100001654,
800085BD000035C5800067CC80004AE40001EFBD8000AC3E80000A3E0000003F,
80006D2F800087F3800004690000A2DD80001B17000188628000371680006886,
80006515000000A18000519C800032AB800123BA00007A0E800050FD80004E7D,
00000A9680007226800026F4800007E480000B63000065018000244480004738,
000024E18000703280008D850000126E80015FFF0001A49700000B800000450E,
000050DF8000776E800070578000EB1000007B0180018BB400007E32000041DD,
00009C8E8000259680004D5B800007618000453E0000709D00001FAC8000687B,
8000323B80003F0D80005A67800077310000A5C7000019A400007A3380004811,
800017D9800083AB80003E008000054200010E100001347B0000F22B000074C6,
8001061C8000319E0000441880006C918000E2630001E601800032DF00000F5E,
80005A5E0000537A80005242800001AF0000D6A18001958B800079A50000956E,
800024EC000144590000048C8000C7930000733C0000B0170001359D00003C5C,
8000710E0000150C8000A963000149E60000D1CC0001924500004F7600005FFB,
800042F500004F0A0000AAC0800010D880016F710000745F00007281800046C5,
8000B39300007C0E800055EB00009A120000BF0B80001DE080018B8B00005382,
800275DF0000CBCC8000A74D00006186800045AA00008C648000DA6F00012222,
8001BA4A8000889B800229DC0001016D80001B200000793F8002C8A400008538,
80018912000003AC8000075000005E088000710C0000348B800204FD000175B2,
00010CF8000135EC800009440001178F000023F70000157280008D840001D686,
8001F84780012543000085970000237B000003AB00007FBC00003F00800053A9,
00011BE600018CB88000603C00006997000064C680006BA500008F2E800032B1,
80005672000038F8000027C70000CCB9800106C3800168D280011E898001321C,
8000654E800109840001C5A00000795F00004C26800235898000304700027D73,
00003CF30000089E000005F90001885D00015DA0000105B7800069F000004384,
0000C55A0000A957000054090000DE25800132760002B6490000042E800164EE,
00000872000091B3800058060000942C0001E6AD8001CC9C8000710C00006646,
800022128000712680003D69800033E400012822800042AC0000AD8D80005614,
8000223E8000E8A4800022F9000060200000072080003601000111438000F047,
8000322D000017F08000118A000047C9000150848000AE928000D33680006CD0,
000008FB000039788000295F800063AF0000AED000000AA98000486300000976,
0000118B0000015E8000612D0000774300025D01000192BC80000F6F80009B56,
00000F6180007DB1000011068000754B000028CF000002B000005407800024EE,
00001A108000C0E28000893B00000E3A0000CA9B000049EA8000262280003B81,
00002C69800033318000700180004A2D80005E4F0000F7C80000218600001FE8,
000001AC800005FE800043BD80001C28000018F20001E0420001213D00001840,
80004FC380002B17000016DF00004816000196BE8000D2E5000030CA000024C1,
800073AF0000F229000041AD800031938000B6F4000150ED80001F9F80001B78,
00004FFA0000CACA8000687D000000F780006E430000B87E0000348780002441,
000008BD0000533B0000743980000BEC8000543B80000BE400002ADD80001D7C,
8000277900008AD38000333B80002BF80000C08C0000EC938000A368800054EB,
000091D98000BA5280006C288000388F8000852D00001DB88000DD3500004525,
80000B83800016920000137C800077870000189D00010C72000029B700006F36,
00008EE280002E700000649E800042D780006AFC000053218000F7DE0000C365,
8005D7AE0000060C00014DCA0000B91E8000177D000097828000E3FD8000BD01,
8000EB0B8000EB468001B1450001401980016368000073488000151680001E31,
800165F3800151A18000FD0E0000AA780000A73280007F988000094000008842,
0000EECB80016E7F00022458000045D880010B3A000127FA800105FF0000B1CC,
00009F780000F4500000DC9300009FCA80006EBB000040788000A8FB80005278,
00014C508000911B8001224100002BE000019A330001D1ED0000B2440000030D,
800029AC00007A7600009D2C8000A46D0000495C000175B38000429B8000A7B2,
80002B8300007817800104468000A3278000B1958000D5FF8000F2F20000C8C5,
0000753A8000DEC98000508E80008B6780019414800120A880012C9500009FD3,
8001016F80001DF08000C7BD0000E35B80010BE7000094E88000214E00008229,
0000769980011F2A00003C38800043B0800075278000E0EF8000F5008000745A,
800011540000A60380004A750000A23300017263800014670000704580001279,
8000050100002E6200001AB0800006B70001573B80004CDB800084C0800016C2,
800022FB800012B58000349C800058DD0000D30C0001CD82000074D18000952E,
80006B1C80009B5C8000378D0000AD3D0001177F0000F1360000B24480010B06,
800027348000513F0000513500005C22000170790000BE72800019AC800041CB,
00000D4E8000D4D48000E2E080002C20000050BD00000C398000CAD280008CE3,
00000832000031CD80004C4500005C1A000130DC00016D250000A5450000304F,
00005EDD800061F3800055158000756000019859800113F000000D09000028B6,
8000573C0000198D00002EA0800069E800003FAA80007F7700002FE200001280,
8000C83F00005E3D800047CD80002F8F8000660D000130590000572F8000026E,
000019B8800004FF80002BE90000890080008B178000A27980002FD400001A29,
8000524B00001BAC8000034C8000441A0000BDD5000037E9800074E100006661,
8000389C00002A9F8000190D0000259A8000B4AE000003758000EEEE00004B93,
0000A1588000812F8000002C8000C9248000C08C80000BDE0000801F000080C9,
80009B35000011F7000010770000548380010D558000B85900006F0480007824,
0000344A0000B7790000974D000011440000FC0780008A168000C57F00001888,
8000876A00001B8280017FAB8000BD7E0000510D0000037880028016000070BA,
80008FBB80004A238000E9E200008659000061D600002F318000EED5000035F0,
8001B1AD000053418000AC9000003FBA80014CBD000221F08001652800003D97,
80019C350000C2438002A49080005D6D800022EF0000E04E8000E38180003F51,
000053F3800157BF80010A690000144D0000200400004E2C000152698000D4FF,
8000AFB3000042850001990A800011AF80009ECE8000713E0000E3638001B295,
000149A9800292BE00030F8000007AA8800083878000AA7480002C4F00001A28,
8000A2A800003C2800013BD800018035800095A6000085788000068A00010546,
80021E940000D11880009A33800141070000CA3480007A580000565600020CF8,
800003F10000B231000079CB000069EE00000D770000525780003EF180001A9E,
0000890400005E8400003DB6800086080001E41C00000F2A000085D300019A2E,
000017900001288100002A6E0000D02F0000955C0001111180006BE8800070FB,
800065770000363C8000485E000052540001162F8000B53D80007F0180001E02,
00001A4C000023D7000064F10000ADBE0000922A0001596E8000861480007845,
0000395680007BA2800046FE0000F0860000DFBC0001BC9980020FB400002733,
0000403E00001048000009EA8000413A000170E58001420B80012A4380003979,
8000400D0000AD2480008B3600001BA9000025C0800094EE80007E6B80001B28,
800030F800004A32000061E6000092130001A7A88000437E8000157480001B40,
0000328D80005C4C8000820D0000422F0000744A000353038000D6A70000546B,
800050B6000080AF8000702B0000AE6D00006629800062EF800007C58000080B,
00001E2000004FCD8000BF62800018A700010AF18000A01C800058AE80001F4C,
000002530000653A00001F0F8000912200005CA980005140800159B680001477,
8000DD350000409F8000021180008F27000107E20000D9E9800059C4000027D1,
800073100000226480001B59000010A7000081360000FEC200003D0D8000308F,
80006EE200004D94800038638000C6DF000164AF000073A680003253800055D3,
800083030000613A000052650000B5790000F91380012AEF8000AD8980009699,
000012E3000063888000E2AC80001F2400000F4D0000A85880003C480000F68C,
000054A980010BE5000004478000608D0000319880005E2A80030A79800020E2,
8000086180008E7D80000C220000F4CF00009F09800134AB80009C398001047B,
8001A95B8000CBC60000DA29000073FF0000903B000094288000E3DE8000E6E4,
80007DAB80016E9A8000C45B00019BDD800037B9000062B78000A0FF800013B9,
8000794D800058CA8000BA85000064D78001F12380014FC60000C1F800015754,
00005FCF8000F0B48001F6C40000EABC000144FE8000AF498001A00B8000C91B,
800098CF8001295F8000718A800102020000347A8001342F0000689C000153F0,
000015BD80003DCC8001C634800027F200002336000018520000328700004799,
00010F1E00011FCE8000148300003AEC00006DDD8000A9F9000169FF8000D95D,
80009E49800086CE8000572D8001C1D400001C75800117A3800202830001CC80,
8001025F800005F6000017698000BCDE80018CE380009AB1000032C780005BDF,
80003503000054B600001B6C00017A20000197440000FF2D80025F2B80003CFA,
800103C48000105200000FE680009579000016C9000157EA8001549600001C01,
800001C18000CF9180000E310001170C80008DC10001872180016B8600000DE5,
0000613A00007E00800028B9000016A700000A4F8000F7BF8000D04800003616,
800017F20000B632000017988000180600007C8A000153E38000B9D200004651,
80005CBC0000389F800034CF0000466A0000FAB000005E758001743C80003D1A,
00007B9300004875800042AE000056CE0000964D000083C98000B09500004BFE,
800038CD00003F0B800058DA00005A7F0001B9BC800042B280011B5D8000206B,
800005000000B0E300000D2900005B5680016C638000405880005182800092EE,
80003AE200007976800005018000624A0000D9080000D6458000A96300005779,
800035CB80001B4B80003A5880006A5F8000BAC08000B77C8000A05380002A30,
8000065A00004FBE8000C3EF800044DD8000A5BB80001CB8800051C80000177D,
00005C7D000001AB80002FDA8000117F00007E398000F5DF80009B2680000900,
0000046300000807800032C28000A7E7800057900000EAD480017F9A00005439,
00004E068000353600001742000045EB80016011000030458000584000005599,
80001E10000029FA800071EA8000FBBD0001352880016578800144E80000846D,
80015961800069D900004F55800004D68000F66A000252ED800064868000C91D,
00011BBD8000197000001499000082E78000E8AC0000E21C8001468A0000DEF6,
800195C200000BA10000363A00000ECF8000CA818001115E8000E8C48000C270,
800076548001B29F800060D6000020AE0000C1C18000D37A8000E77100019B3C,
800114FC000221DE80003DAF00018A8A000067B78000C8FB00008D9F000142B1,
800295DF000108BA000010550000AF6400008C3A80005E7E800041F700012BE4,
0002124500010CC200008708800170D40001DC4D0000B51D000029510000D348,
000160848000F259000150DA800074568000F42C0001382980011FD900018189,
00001B9400006F8F800037B98001911E000054DD800075680000812C8000C799,
80008EE08000C82780003D8A800131E58000DCBE000004FE8000802A00003F28,
80010665000025490000911C0000B36B0000594900006CA380008C8F0000D879,
000081BB800089130000382680009C6B8001EA080000E5F08001C8F680002757,
8000653500006476800024780000B3DE8000833E800008318000B04A8000233A,
00004C4380005DF6000035D28000F79F000149B78000A37E80025B2200007D7A,
000032EC00005F2000007B0A8000010A8000524A8000BCC48001272700006503,
80003B510000028980001066800078C98000090500015145000061E30000443F,
000016948000EB60000002D30000C84E8000C58D800015CC80006C0B0000224D,
000029A70000259F8000015A8000261A800054F100004ED00000158200004523,
800018DD000030BE800017FA000052D080004650800075C98000CA2F80002EC5,
0000415C0000512E800001BC800035158000BBF40000FDB180003CBE00000F09,
80003A1400000FD68000663880006B7C000072A380000D8A8000A246800008D3,
80000785800013A2800039E1000047CB8000F0C4800044DD80004FE88000151B,
800027060000AA498000265A80009B2F8000C968000090A28000370680002274,
800051F980003BF400001039800044CE80003ABE00013DB70000810E00001696,
80006427000078158000A66A80003ADF80000CDF800161058000B35F80004CD4,
8000429400000E8B80003FD680005BA80000B6DD0000886180008BE7800025EB,
800117DC800038B880002D7B0000196680007F6E8000A6A78000E6938000708D,
0000D70980008B82000020B700005B2400005C780000BDD38000B33080003AA3,
0000F093800058388000600A00005F470000194400002A7A8000BB008000E008,
000025E580000CBD8000033E80001310000051BC0000D74800005A070000346C,
000060210000019A8000CFD300020FF300006B090001B14C800127810000F35E,
8001F2CB0000E9F68000D852000010FF00001A958000286F0000E7858000C181,
80004DB18002145C80007FC400006A2200012FCC80002DDB0000DC958000A516,
8002021C00012B0580001BF400016D99800044530000986B8000080A00006FC3,
00003DAB80003801800003858000E2A7000133668000CDDB0000D41480000699,
8000ADB4000038680000F86280015ED90000D3A70001364E0000E6BC80007C9A,
800075F300007A8D8001C4680000B1F8000108E280001B488001203B00009D89,
8000457B00003DD3800029D400005D438000AFF580000FBD80010B880000606A,
80005C4D00009C1D8001B4438000A5D700010F270001F71E8000524300014C58,
80003FBA80010EF0800009338000DFF100009B45800249B1000076DE00004ABE,
000043228000DC6F8000429C00001AA7800187B8800023F38001A6FF00002538,
8000900500001C36800007760000B55680001EFF000090088000AD4300007A3F,
800044DD80008F2E800034EC0000455400007E910000BB460000678880005BB8,
8000054C8000286E0000225500001268800064C7800078018000108400003DF4,
80000C12000082E7000010750000158F8000526F8000E4CE8000225F80002785,
800017C280002688800039728000288B80003FD700018B1200001E5F0000346D,
000001BE8000113C0000351700001E108001B51D0000206480005D7F80004C79,
8000660700005E5000001C5D00001599800029CA00004CA580006C6180001FF4,
00003B25000048DD000004E3000070D58000800D0000B7C98000E1E18000997D,
00006C4D80002A610000291680006ACE0000BCD60000ACF280007B4300000722,
80000B80800002E80000035100004AF88000420000001D328000F54F00005702,
800034D600006DD30000346F800039410000096D80000630800084D6000019D4,
000034C380006CFB8000361D8000A3B18000B7308000424280007EEA00004551,
000038140000A4CC800009ED00000E9480005E190000365600005B8480002754,
000023CD00006F1C800089E900001CF2800049DF00006FD78000033F0000E1DB,
00001088000094358000AFB3800068E5000079378000C1508000B80600002D09,
80011C02000018478000F85A00002B0D80016AC580024ED400007D0700009E5B,
000028668000203500006FB180000229000073D2000017C4000070898000AE03,
8000D9B800014DA40000592B000063080001A77480000CE180013BCE800147FD,
80000F0180006EC300001FF20000954300005B3A8000ED9C800064760000201F,
0000397B8001564A80001A64000192EA800048020000C5CB00007AAB8000090B,
80010CC18000196500006FB080006C83800034600001A8DD8001F48800001B1B,
80001AFD00001F3B8002308300023F53800126AA00012C5680006EF40000F893,
00000C85000128E10000395D0001C9340001D1FD80012E8F8001352300006EDC,
8001F0728001009E80000262800175178000F0D90000A6090000EF9700013288,
00013837000057E58000398D800030D200002F6200005BB98000D0738000990F,
800004AA00005AA100003A518000EAB40000534C80004D9C80018C528000A46C,
8000360F0000C2CB00016A1A0000857E8000B83F80000507800172BE80000BF4,
000041E80000D1CE8000828380006B8A8000B921000023BD8000EB48000116D4,
800063EC800095400000420400000BD68000B4EB8000D6C8000079BC80003C1C,
8000568000002BE8000078EE80006A1E000089D08000F54D8000847D00011D99,
0000496F80002D0780001B3F80004A968000C67080008BB00000128580007B4F,
80003843000023C400000C10000024F20000EA9380004F728001483D00007E5B,
00004698000041220000823B800014260000C4640000BC8D00004BED80001807,
800086B300005D658000093600002A5080007B440000E66D8000DA0000000B07,
00009360800002720000684200004C1F0000165A800014DC80001EC90000062C,
800021F38000823600000FFE00005BF68000CEB68000122280006A2D000026C0,
8000284F0000D6F200003E9680002A91800054578000C0A30000224780007489,
80000C4A000017A580000110800087A680001E390000B83580005D21800007D8,
00005EFD000057BC800009A3800087570000F30A0000DB63800008C98000A6B7,
0000009100001102000043898000165F8000E0420001B594800088B600004C6E,
8000BD0A8000370600002580800020B40000ADD080004034800049C480002A29,
80006F45800084BD800028D68000BAF88000B17B8000A53B800000058000A5D1,
80003789000052AB000043E80000A597800059288000C18F8000F3C4800109A0,
80003D840000739800008F180001C4CF800017698000432C80012AE38000446F,
8000BFF18000CB128000E4FC8000E7890001FDC58000DE440000BF0980012AA2,
800012D98002B2E600005690000062D10000F397800090C380004F0180018C17,
8001A5FE8001EAE480004F75000097D580008E6400014DB88000294C80011F74,
800023F30000D27000007BB000009C9F80012BF180004FE00001501F800057F5,
0002009C8000437C8000475F0000DCD8800042BD80011075800180BA8000AFE2,
0000CFDA80001145800111C2800053E280010DCE00004338800047D480004A0F,
8000431F00014BEB0000F09B000029700001386E8000E7DA8000B211000098BD,
000013988000683900004BE9800041DA8000DB23000010540000813B800012C1,
800184AC000192AB80002E710000C81600009C878001D4548000A9B68000C03E,
8000670B8000F0EF8000F1988000FA94800001DE8001825A000083A58000577F,
00001C0300014DC500012EE9800067948001827C000070B88001311600021E5A,
8000D77C800087B980000CEB8000835B800172160001BA900000869F00009966,
00001F80800074C80000315A0000764D000013E9800076150000B4AD000101B3,
0000190C00007174800005408000E746000227400000860C8000ACD88000000D,
80004A8680003742000019AD800047888000AC1B000187420000A3DE00004CFC,
00001FA500004E7B8000170F800026328000D995000142DF8000F4FB80003D3F,
80001F7D000037600000027D80009BFA0000382C0001E98800002F310000708F,
800036220000002B80000D448000E3F08000B53500025EA280006A7E8000079B,
800001A480001D5D00000E530000103000001F8C800091B980011DEC0000025B,
8000040100008B8500003539000019D680007A7E00000B4A8000136880004576,
8000141180008B18800027FC00001E2D8000245D000009798001D98900007F3B,
0000450700005A4700002A8400007FB48001326400008BBA80003978800008EF,
80007EE5800015F8800026548001C6A200003D67800098C98001554500001BE3,
000040DE0000993A000030D6800020120000391580001C7580007ABE800020E5,
8000070E00003A94800019AB8000BFF50000FC6100003ED28000263080008B41,
00007C060000139780003D7980017DAF8002B8E18001473D800064C9800141F0,
0000713680006D5F0000498E8000078D00013FD8000126CB00002E1A8001C47B,
8000C805800020CE80005C8C800068C1800081F20000301A80007C228000DEE3,
000046A78000219B000090F78000BC340000890100006E7600002C6E80011960,
0000F16080008FB6000025C380009B30000122828000A18C800016F480002A90,
8001297980014F860001A5D90001A7B2800056E500002DBB8000A38D80007DEC,
000277CC80006F790000D2560000C63A0000EF108000A6258000A34E000112AA,
0000835D800079838000B24E800088158000AC7880012C9E000030C800007219,
0000AB98000116D6000079900001CC2280006DFB000006250000386C80002CAF,
8000198800012FB4000045D60000242C000062150000C367800093DD80014C45,
00018CE70000482F80013D64800019E08000A2DC8000894F800027DF0000E660,
000047DE80005A2C000069E80000954A0000BD9B0000C871000087C68000798B,
0000DE430000BDB08000E58380000737000105B1800225CA80000C408001B131,
80001B730000586B800057420000A22700008A210000726300005F7A0000EE50,
80009FB1000073CA0001E89B800035310000AA038000E2CB00019F410001A954,
8001026B0000500300004BB300009D8400001AE08001ACF58001DE30800070F1,
800000BF8000E42300003D8B8000E015000060F000019AE10001FA7800006A93,
8001564280003FAE0001371A80002DF180006CFC800044FD80015ECC0000FB3D,
0000469F000090D20000FBF600005732800043B1800013BF00006F330000B08A,
80004D2F8000742500000CFF80002907000041218001ED1E8001420200001F1D,
80004AB600009F010000B8FC0000D0FA800081B20000AA4E00008EEA000069F4,
8000C02780003DA8000056498000356400017F8980000FA680001E640000BE96,
00009FE6000065430000BDC58000050B0000600800012FB980004ABB0000DAFD,
80008E0C000032FF000048E20000D48A0000B8D7800118C70000481B80002384,
00015EB4000034970000C0120000C26400034E3280019211800050AA00000F29,
8000FAAB00006FD5000090580001362E8000446900014D0980004CDE0000279E,
00000A3E800027630000690000009F1B000064618000595B00000B2780008955,
0000D9600000AA3C00011EF5800072340000ECBA800114658000D6DC80002857,
00004E99000170A10000B01E8000FA9B00011D328000233980002BF0000158D3,
0000D90B800170CF0000E579800214E6000080330000A7AF8000C0C780013D84,
0001238280008CF000012D78000039D00000576280014A41000154D1000015E5,
000028C60001EF470000617E0000313C80000AD800002CA40001655D80004799,
00019FCF00013F870001312E8000B6E4000059178002550380014E6F8000DB93,
0000547E80010092000033620000404B8000170F8000CFB78000A0BF8000467D,
00000386000060C100008E61800185470000838E8001FE56000096AD00010851,
000100C100004B3F00006D2D0000EC490000DE10000092C600007B1800010397,
8000CE59000150E6800040B80001C4DB000169A20000605D80024FA20001DBF1,
00006C848000230E80008E528001FF9300009C9780004D4B800184AE80001CB5,
8002BD3B000068858000EFC28000EF9100006CB980005C358000DA2C8001BC34,
0001EB00000033E60002B17480014A160000B9FF8000B31400005DD6800181EC,
00020C920000562000009C3500018E71000011B40000292E800079338001FA8E,
80011BCC800121EB8001646200002818000096A18001850300014A2300002DFA,
80003B3A000108700000811D0000C1728000C0B10001A5F680008C2F000018D6,
00003DD5800091C880000200000045EB0000F01580005AAE0000F7118000B984,
80019ABB0000562C0001EF55000223628000708A800106F400007988800091FC,
800138E88000D8938000CAF8000056190000968A000001AF0000C8C90000DEBA,
0000E3378001059B0001D55E00012F9B000018A580009E870001A130800047D0,
800032DE80009E85000086490000F42580010A9A8000A9C80000EB0400004B25,
000081C98000B30700016DE100009E61000056BF80008FA4000006EC0000BE0C,
80003F93000062F50001054380006E0900009C1B8000919C8000708980000D6B,
800033B980000CC10001E6CF0000C5920000173C800058420000F683800036A0,
00004434800109D40002E86B000012D000013F1C00001FDA000099C60000ABAC,
0000927B8000994B0000F7D30000E7010000796A00016A9A0001DA548000005C,
0000EDC900003EFD00040130000185108000C5E5000045940000102600003470,
8000C33F8000D90C000035A00001AE6C00006E858000CBCD00000EE88000241C,
0000779D800064440002786F000106C480008AAE8001DA4C000090860000B66C,
0000842080006AC60001B1F70001AC3400026BA00000789C00008B4180005A09,
8000D79200001FDA0001258D8000B875800013F38000D3188000E37B0001A9D2,
000088FF000018FE0001230500008D778001B0200000518280005F3080016335,
000049360000524F000058518001F008000053FF8000D771800001058000A546,
00013A5E800034ED800071838001488380018B1E800152068000E1C60000FA31,
8001929100000AF800009DBA0000FFEB800003EB800070CE0000986E000057BC,
80005E1780001702000157E20000A7240000DEAE800025EF80004B2500007F52,
000058A20000BD1D000017CC80008C360000AEF800008B54000035DF800009E0,
80000DF58001775380002E0B00001D7B8001DED68001F1E80000B4CD80018E4F,
8001101B0000BE790000F040800012188000C75E80005FCE000001500000A5E8,
8000656E800090420000572B000050F2800067318000F317000045938000401C,
00003408000023B4800154CD000121C50001694980000A8A800181280000847C,
0000F26C0000F1D28000070C00002F0D8001B62B000234FE00002DDD8000D31A,
80006323000071368001036600002B6B800091D38000F9290000B6E58000D226,
80002882000138F8800010F8800104BF8000894C00013BDB80013B820001FAF5,
00025EDE800097630001C1B20000B87E0000F70D00005355800181B20001E0B8,
8000AB4D800029E50001297D0000DC1D000047EE80004377000065560000172D,
8001650E8000A375000130BE00000B410000ED520000DA2E0001D70180010866,
0000A22100014BC50001509B800036D8000088D68000426100010D9B00003A07,
00027BF80001B2750001358A0000A1498001657600018A33000114CF00017548,
000060BC8000674F800208338001452B800064A28000E6400002290600012186,
000184EB8000BF16800081CA00001BDA8000D4C180014798000176F38000E760,
00005B430000BFD88001900F0000B613800007EA0001AED30000E70C0001C6DD,
0000599A8000EC418000AC9E00013FDC800060D980012FB98000585180002865,
00016BD280018BE00000719E00021A808000C7DC00019233000175000000A894,
00001A1A8000473680001CC28000025D8000540800011977800172238000CC84,
800062248000C3430000D41E0000DD318001B43400001A1300016F910000EADF,
00007D31000067518000010A00000E56000018FA0000B6130000645F00017479,
0001A9C780012CFC8000146B0000620B8001D1D680009DE800004B278000C7E2,
000134098000968980011E670000DC000001E5CE8000D77980003EC100003B45,
00013C1A80004A29800159F38001850A00002DFC00022BB50000013A00011321,
000073A78000656B00013475000014630000E140000006B2800038050001E125,
00010DF3000158A80000321800001EB780010B5A000091C90000A6B500001E5A,
80001E230000CBB38000C2DA8000FDF580009A1E000052CF000135B68000A9E0,
0001E2AA000039F7800024FD8000E7CA0000BB8D00015BEA00006B5780002D87,
00010C6E0000C2148000B9CB0001B3090000ADB40000045B8000BC9C80001B99,
8000380980020BD40001658380015A780000DBFE000037888000C71E800046BD;