memory_initialization_radix = 16;
memory_initialization_vector = 
8001EB8E00031005,
0003381D0002440F,
800470E780036AD3,
8005378C8003AB8D,
80031A670007A012,
000295E98003009D,
8000FDF00003E169,
00054B0A80029B08,
8006E15C0000AB4E,
0001BA728006951B,
8005C4A20001B8D5,
000355B500008EB5,
80052F03800468B7,
800179C30007B4FF,
0002D458000033DB,
0002C24580080AAA;