memory_initialization_radix = 16;
memory_initialization_vector = 
800195E6000648A2,
00034F8580014476,
8002F08E8002C0DB,
0003497A00057A45,
8000E4E18003ADFB,
0003C14400012AF7,
8006643480026360,
8001705F80079FFC,
8003A2F7000227BA,
8003532C8000ECFE,
00015799800760DD,
800390E10005FF88,
8003555A8000D591,
00037E5480010F1F,
8005FF7B00016EE7,
80052F2E800204F1;